node {
  name: "inputs/b_images"
  op: "Placeholder"
  attr {
    key: "dtype"
    value {
      type: DT_FLOAT
    }
  }
  attr {
    key: "shape"
    value {
      shape {
        dim {
          size: -1
        }
        dim {
          size: 64
        }
        dim {
          size: 64
        }
      }
    }
  }
}
node {
  name: "heatmaps/reshape/Reshape/shape"
  op: "Const"
  attr {
    key: "dtype"
    value {
      type: DT_INT32
    }
  }
  attr {
    key: "value"
    value {
      tensor {
        dtype: DT_INT32
        tensor_shape {
          dim {
            size: 4
          }
        }
        tensor_content: "\377\377\377\377@\000\000\000@\000\000\000\001\000\000\000"
      }
    }
  }
}
node {
  name: "heatmaps/reshape/Reshape"
  op: "Reshape"
  input: "inputs/b_images"
  input: "heatmaps/reshape/Reshape/shape"
  attr {
    key: "T"
    value {
      type: DT_FLOAT
    }
  }
  attr {
    key: "Tshape"
    value {
      type: DT_INT32
    }
  }
}
node {
  name: "heatmaps/firstConv/Variable"
  op: "Const"
  attr {
    key: "dtype"
    value {
      type: DT_FLOAT
    }
  }
  attr {
    key: "value"
    value {
      tensor {
        dtype: DT_FLOAT
        tensor_shape {
          dim {
            size: 5
          }
          dim {
            size: 5
          }
          dim {
            size: 1
          }
          dim {
            size: 32
          }
        }
        tensor_content: "\2756\343=1*\365=R\362S<\265Ds\274=\355\025>g\177\304=\372s\275\275y\254.\275\321nP=\332v\014\276b\227==z\254\025\274\020\220:\276v\014\353\275\027\\\312\275\313\375\264\274\370\255\270\274!\034j=\335@;>\020\034\025\276\370\304\210\276\206c\032\276\215u\321=6\222E>\356\326\035<i[\307\275\313\355D>\314 r;)\333\023\276\233%M\275\035\221V\275\215ZV\275n-\257=\005\365\214=\300\0312\275K\357\227<n\243\331\273@\275\002\276Xx\013=\013G\226<^\360\357=W\367#=5B\023>B\272(>\350\271k\272\200\371M\275\004\206\r\275\363D\365<\0066\216\2750\216\202=p6\203\275f\311~\27560\267\274\241\324*>\215\377\213<\364?\002\276\022\333l>5\'\t\276\271\254B\276\243p\221\275\364\361\r\276\273\311\017\276f\201\033>\264tO=\025.\240=&\300\014\276\312[K<\215\301O\276z\243\023>\303\305\253\275:\326G\275\363\260\205\275\376\270(\276\271\023%>u~\267=7[L>\257\'?\276\344U\004>e\005\206\275\301\370\r:\266vr=\324w\311\275I0\023\275\035\230\346<t\037j\276\234@\214=\254\331\">\300[\205\275\241\004\257\275j\250\006>\032\230\363\275 \021G\275\215g9>\264X\256=\346\210=\275\276l\364\2754(&\276A<B\275Y\327\247\275\344u\320<4^\243\2751\225\013=T\353\252\275\236X\037\275\010\000E>\213\005\262=PLF;\356\'V=\207|\001\271\377N\261\274[\261?\275\216g\243={u\217=\225\007\024>`=\027=\030\307\317=\'\036\022\276\345\016\022\2769CZ\274\205\260\005\276\034\324\203\275\002\266\331=\0338\261=\353\351\244=\234\007\237=\255\212\364=2%\330=\361#\331\275\316L/\275\013\240a=\002a%>\022\221#>m{\344<\377\026\251\275@\217\013>\301\200F>K\320\352=\255\222\261<\353\324\206=APO\276\364\237\017\276[\037\'=\360j{=5\373\214=\343\354\225\272\301\313C\276#\255\200<\245\336\263\274\316\233\037\276\346\274\033>\211V\000=(\200\223\275)L\'\276c\034\260\274\271\237~<\r\267\005\275\n\203\257=\245\275\014\276ML/>\t\362\274\275\026Yx=G\255\350<\346p\223=\352D&\275s\026\016>\215\366q>\013\276D>\316\217\000\276\231J\365\275@<\325=k`\023>\320D\035=\304MT\275\347\202\t\276\037\304:;\320\227\017\276*V}<\352f3=\217\351E<\305,\317<\247\331\000>ff\331\2750\304\033=r\267c=\322\022d=\000*\024>\335\350\325\273\300\005P=\037x\334\274\260\272\360\275\356\347\267=\217\314\356\275>\2250\273\214\245_=\316\3675\276\031\253+>\210\232\263=\346\354\376\274\006z\320<_\306\256=\224G\306=B+\366=\334\027\355\275\276q\035\276\203\320\031=\226\317\036\276\262\330k=T\016\003=\035\202\235\274\314x\265\275\274\345Y\276\301\275B\274g{[\275E\254@\276y\"B=!Q\017=-\346\262=\351Z@=\220\200D\274>\323\233<\221\251\207\275\364\005\\\275\210VM\275`\326\231\275\025\304\000>p#b\276\306\325\276=\247\343}\276\304\307\013>\361\250\232\275\3125\006\276\332\364^=\036Dk\276\276\325\236\275\352\345\010\274\360l\326\2742t\356\275\2477\333:\242,\016>\216\330.\275\210\366\320\273Q\214\273=\225\273\334\275E&\374=\211\317;\275\303\033\312=-Z2<\271\014\203\275\244\220\"\275\243\n\325\275\347\325\002>O\2546\275\220\327\017<\033z\323<\337\375\341\272X\226\345\271w\\;\276\322\353U>\372\324\027\276(\275*>\251\222J\274\235\361\036=\227\032\037\275\303\347\032\2750\232\026\276\301\237\216<^#\200=\027\2002\276\241\256\\=C\245\017<\360\241\301<O]\275\275\030\342\321\274\203q\200\275I\341\333\2756{\321=s\205\212\275\013\312\355\274D\310\334\275\0036>=O\032\375\274\344\337H=.\352\361\275\303\244\336\274\305\356Z=\r\025_\275\273\t\034\275\213(K<D\'\n\276\007s\023\274S,\034>w0R\275X\"\221\275\350A\215\274Ue\256\275\001\2109\276\020\263\026\276\"\234q=\027\206E\275T\267\362\274\200\216\202=\370\033\016=<\251-\276\364z\203=/\013y\274M\370)=-2\240;\010\2515\276\250\002 <\255P\216=\275j}\275\313\207\211=\246}\334\275I,\"\276>\020\310=\207\361\211\275\224\375\262=(\350\r>\016\236\267<\3054\332\275\236=\267=\007\317g\275Qe\261<j7f\273\365\013\013=\027\265\270;\002\243\250=dO\033\276\004m\275=\3471{\274\214\237\255;\304\247\310\2746o\337\275\340\'\214=a\371\250=\223\233\233\275\245W\035>\303\277\026\276\236\033a<\013Z>=\026\275\345=\004\323\330=\204X\265\274\312B\257=\272j\330=>t\231=\245\2626\276\266\020\205=oY\021=\017\325\023=\"\310\360\2730\331\332\274]\214\272=#\373\327<\216\347\374\275\365:\206=~\265\212\275-\220R\275S\326Z\275*\332\235\274\002\2238>\007z\363\274\241\3103\275M\267\210\2757w\241\275\240\307\204=\374\305\212<}T\212\275\327\233\036\275\177\211\353=\256\027\232=\230\214\250=\221\020\370<\335(f\275)\333\241=\227R\324\274Ux2\274\023\0234>f\315A=;Y\005>\241o=\276\t\232\024\274\234Z%\276\276\\\303\275\356\232\327=\005\332\005\275\262\0348\276h\365\016\276\370\236S=\305\247\231=\366\333\345\275\271?\232=\376d*=\251B1\275\267\346\035\275\375\017\254\273\323\215\r<\202\240\240\275O\225o=\373\277\331=\221\347\t\275\211Mt\275\242\303\223=?\300}\275k\314\'>\332\340\317\275\235\376\332=\337\026!\276Z\255c=%\000L\275\375q=\275\323\300_\276R\367\202\275f\206D\276\313\360\243=\261\343;\275!P\013\276\275\233\013\275\344\025\330=\311\032\025\275|\212\006\276\332\267L\276f?\344\273\320\\\023>\377[\277=2\350\326=\017\305\210=|\323\251;\217g*\276\205\335N=D\210!\275\324\347\310=%\276\224\275\373\364\237\275\337\031\262\275\036;4\275#\023L>\332\363(\276hQA=\352\323\210<c\017\036\276\207e\031\276\275N\000\2752\242\332=^P\261\275S\000\244=\037\2602<\030O\225=\3366\t\276\377E\002<\013\212\010<b.\262=p\200\357:B\356\244=\242\302q:\022\302\342\275}\017L\275G\3662>\212\373\370\275\345\222}=\205f\t>\350\346\345\274\233\227(\276\223\261\356<\2564\334\274\322\350v=\305Iq<0\341\376\274\356.\024>H\246\004>\240\006\276<\n\n \273S\255/\276\377\374\303\275\227C\274<z\371Z\275c\346==L}\003>\201\205\256=V\253\365=3\204\221=\200\235\200<\214\216<>\036\t\253:\247G;\276\325jI>\233i\362\2748\323\376=\207\001G=\r*\324=\224n\252<Gc\276<\347\211\225\275\330\374(>c\341\\\275\332\271*=\\\246\351\275\222^\365=J\216\275=\210\377\303<\376\207\201=\237 \272<:\365\034\275\013\343\261\275u<9=\257@\014\276\343WB=\353\332+=\206\360*=\324\002\034=X\277\334\275X\322q=\001l\024\276$\027D=\005\247\374\275\033\257\t\275 {0\275\021*\023\275\221\365\004>\361\252S\275\360@\025\275x;\251\275T\324\256=c\306\031=\227g\332<\350\243\314=\"\306P>sR\'\275\205\\\030\2762\313\275\275\343\230\345\275\327\276\217\275/\217I\273\0209\233=\215>\240\275\177\005\257\274\217n7\276e\257\367\275\233\272\362=\237\237\325<P\001)\276n\377#>Ul\260=I%w>2\034p=@\206!=t\213\017=:Bm<\332K&>\245b\354=\332\026\365=\211\177\235=\230\325\212=\245],>n\363\263=_\213\321:qE.\274m\331G\276\245\273\260\275\327\200f=\246\344\315\274\346\201\025\276\245?;>\203\325\326=\204\344w=ah\276\275nz\244\274l\342\225<^\205\337\275\365#\010>\265\203\032\276\276\323\355<p;\373\275c\025\270\274h\245I\274\357\3373\275`\347v=\317\305\000\27601\300=\030B\244=+k\"\276\257\265\014\276\023\302#;\344\315\222=\365\227\277;\337\245M\2756\177A<\305\332\t<\024\324\024>\241d\"\276F\244D>yKe=\263\306 >hR/>\372t\213\275\340\324F\2767\351\265=\250\354Q<\001A\232\275\000\245\002=\013pi>\346l\311=\301\253,<m6\004=l\226\027=\177\350\257\274\033i\031\275\311\202\036\275\332\272\265\275Q\010\033\274\364\243\270;\227\377@\275\206\277\207\272/V\032\276J\021\005\276\336\204\226\275\266CT\275\032\255\307=\t\307\327\275\344$\260\275J\277\307<\253Q\251;\010G$\276}\243\001<\246VY\276\371\007D=l\311B\275\355*~=:E\247\274\247\3572=\314~\256\274\023W\244\275\366\020\235\274\033\032F<\222\360\241=\000T\265\274\010\206Y\275\024\031\032\275\347\254E=\305\240\247=\315\365\001>6\236>>\034#\370\275\343\227\204=\361\222\004=\366AV\275{l\366\275l\332\241=\237\272\344\2751@d\275$\277\372\275M\rP\275#\205\367=\263o@=\364\221\236\275\345GB\276\274-\331=\322\226\\\275\034\037\253\275\201\301\332\275/\024\016=0\322\200=\3516\205=\206\270o\275\"}\034=\212\323\001=\232px\275\250\3755\276iCd=}\006\237={)\204\276\2233\031>2\276\264=\272\027\274\275\r\375>\275\252\254O\275R\326(\276P\212\030>\337\252m\273\346\236\203=\377\323\225=\177\0374\276\035=+\275?W\t<\234v`>\016S\n=\263\023\251\275n\364\234\275\007\214\220=;\224E\275\263{\250=7\225\216=i\3465<k\315s\274\215Z\312=\3451\304==LU=\t\231+\275\266\204v<\334\323\263\273\216\302>\276\022*\210<?\365\206\276\006q\323:\021\347\'\276_\252\201\275\344+\373\275\376\256\271<q\235\007\275kv\260\275\033\207\347=\344Bk\275\tRW\2760`\177\275\'\322\361\275~\n8=H\322W<I\'\230=\275\223\222\275\277>\210\275v\203\247=t<Q=\n*\313\275z\266\351=\237\013&\27590Q\274\023E\002>h=g>\335\267\034>\322\214Q\2744\266\201=\311\322i=O\236\247=\016\236\340<\330\306l\275vE\201=\033\031\245\275\354\337\344=\264A\236=\301\335j\275\"g\324<-V\367\274\364\257(=\3268\252\275\277\267\332\275@(\247:\n\230:\276\355N\251<?/\372=l\347\255\275s&c=M\253\361=\310_\302\274*7\002>M\352\007=\237x\310\2752\337\362\274\016D\203\275`P\t\276\3535\266\275\025\255\347\275#o\202=-!x\275\032\335\343;\033\020\204<\016\323\022\276\233\023\031\276\217\006\024>\3123\366=\262\r\013\276\200P~<\235L\n\275\366h-\275~b\007=\356\341\262\275\273f\365\275\222\206\201\275\271K\227=\247\251l\275Q_\000=8\313\222=!p\237\275\024\343\031=G\0031\275\215\032\002=\372\353\303\275?\341@=\\^\r>\376\0044\276\255\022t\274\231\000\305\275\216\257\232\275\257\324\252\274\037\307\3339\2330\354\275\212}\307\273\335V\311=\215*\000\275\216!R>\016\031\277;"
      }
    }
  }
}
node {
  name: "heatmaps/firstConv/Variable/read"
  op: "Identity"
  input: "heatmaps/firstConv/Variable"
  attr {
    key: "T"
    value {
      type: DT_FLOAT
    }
  }
  attr {
    key: "_class"
    value {
      list {
        s: "loc:@heatmaps/firstConv/Variable"
      }
    }
  }
}
node {
  name: "heatmaps/firstConv/Conv2D"
  op: "Conv2D"
  input: "heatmaps/reshape/Reshape"
  input: "heatmaps/firstConv/Variable/read"
  attr {
    key: "T"
    value {
      type: DT_FLOAT
    }
  }
  attr {
    key: "data_format"
    value {
      s: "NHWC"
    }
  }
  attr {
    key: "dilations"
    value {
      list {
        i: 1
        i: 1
        i: 1
        i: 1
      }
    }
  }
  attr {
    key: "padding"
    value {
      s: "SAME"
    }
  }
  attr {
    key: "strides"
    value {
      list {
        i: 1
        i: 1
        i: 1
        i: 1
      }
    }
  }
  attr {
    key: "use_cudnn_on_gpu"
    value {
      b: true
    }
  }
}
node {
  name: "heatmaps/firstConv/Relu"
  op: "Relu"
  input: "heatmaps/firstConv/Conv2D"
  attr {
    key: "T"
    value {
      type: DT_FLOAT
    }
  }
}
node {
  name: "heatmaps/firstPool/MaxPool"
  op: "MaxPool"
  input: "heatmaps/firstConv/Relu"
  attr {
    key: "T"
    value {
      type: DT_FLOAT
    }
  }
  attr {
    key: "data_format"
    value {
      s: "NHWC"
    }
  }
  attr {
    key: "ksize"
    value {
      list {
        i: 1
        i: 4
        i: 4
        i: 1
      }
    }
  }
  attr {
    key: "padding"
    value {
      s: "SAME"
    }
  }
  attr {
    key: "strides"
    value {
      list {
        i: 1
        i: 4
        i: 4
        i: 1
      }
    }
  }
}
node {
  name: "heatmaps/secondConv/Variable"
  op: "Const"
  attr {
    key: "dtype"
    value {
      type: DT_FLOAT
    }
  }
  attr {
    key: "value"
    value {
      tensor {
        dtype: DT_FLOAT
        tensor_shape {
          dim {
            size: 5
          }
          dim {
            size: 5
          }
          dim {
            size: 32
          }
          dim {
            size: 64
          }
        }
        tensor_content: "\206\334\326=Vs\037\273\016P\311\275\010\020\345\275\004\344\305=\361_u\275\353(w=1\3441=}\253\000>\246\317\211=T^q\275\2346E\276\177#\026\274o;\245=\367O\224=p[\013\276b\203\372\275\373\345\013\276\275H\201\275\024K\230\275\255\373\000\276\202X\027<\254\274\225=PR\203=\373\2521<\272S\006>n\266\227\275\313\300G=\332U\020\275\364\330\237\275\373f#=\021;\325\275\307\360\316=\235\251\355\273\330\201\347\275_\353\002\275\r\032\356\273\355\007k=\211UI\275\345E->\034S\025\276\001\323u\275\375\270\264\274\025\202\355<\362\320\304<J\005\253=\253\\\224\275F\213\346\274\371\205\272;\021\322(=\034\004t=U\231g<=z|=\265\334W\275\020h3>\302\272.=f\315%>=;\007\275~\342o:/4\030=\245T\261=\265\227\317<\357\302\236\276b\232y\275\346\033\r>\352\265\360\275,<\226\275g\211\301=h\000\271;\345\023\315\275\365\361\232=k)\222<\261\315\245=\023v\025\275\340\r\242\275\332\216\021>\250\332\317;j\240\220\274\372\333\"\275\\\220$\276.1\245=-\211\377\271A\021\016;w\037\366<\266o\223\275\362\210\246\275\320`\224\273P3\345\275\034\347S<\265\257\221\275\035\361\207\275\'\354\227=\315\344(\275\023\030\000\273\310\233\306\275`\023\231\275\007N\365<\022@\334=;\274 \276E\313W\276\037FF>\005\362n;\363\254\334\274\345\233\222<\314\355\005=?<9\275\274a\321=\333\376\036=\025\344\310<\315k\361=M:\212\276\227\251\010\276<\371\341=z\343\225=\300y\354<\370s\264;g\340\t\276\230\357\262=\330\376->\027\035G=;\377\327\275\346\345\242\275^n\031\276\343\347\023\275\026[\260=\006#.=Y\350&\276\005\"\275=5\367C\274\025\237\207=\311\232\272=$j\007=\037\2270=\3275\270=\362\360\376\275\250\306\371=6\353\271<\303u\214\275\211o\205\275o\324_\275\320\250\344=\353\\\263;Q\020\220=\302\225b\275\302%\364=\177\340\003>\207L,\275\221\0003>\005\001\013>#A\r\275{\334\035=\350q\316=N`\352=\007\231\335=uI\324<?\264\214=#\202\312\274\221\277\025\275\362\331\364\275R%\273\275\240\301\n\276>\247\006\275J|\214\275\362A\273\275=\014\240\274:;F\276\2640]>S\330\256=p\340\260\272\377\016A=\036\223\266=\261\2041>\033T\203=\273\242\r>(\305\371;\275uO\273[\226\336\274\310\316\246<@K\326\274\231%\022>t\326+=\2072\333\274\305-\020>\321\210\202=\247%\003\276Y:<\275e\277Q\275\330\345\213<\350\003\272=\271\1773>\366\213f\275\261\272\207\275t=w\275\\\373\271=Wo\250\275\016\317\336\275\006\001\321\2746_\001\276\317\'(\275\032\364\260\275\310\221\204\275\257\377\273<\302T\232=\3326\212=Xj\245\274\320\345G\275\346\370\205\275w\306L=\310\203\230\2747\340\341=\201\025\002\275!u4=\235\020\t>\263\262\341=\266\202\262=\213\252\335\275r\357\205\275\237\n[\276\234\000\356\274\253w\314=2\305\027\276\357-\305\275\204}\317\275\0259\026\274\252G\371\275\315\2778\2763\003Z\276\245\242$=\030\331\365\275\310\331\320<\377\200,\275\337\320U\275\025\324\'\273\251\204\363\2757\326\373<\"\034&\275\310\322\341\275+\2256\276Q\276k\276x\n^\276B_i\275\240+y=\262\231\205\273`/a\275\\\0367\275\325\365\347=\001&\352\275\316W\006\276`\013\263<\315\377\247\275x(\315\275\244d\324\275\t\352A>)\261\n\276\306\'Y\276\245\026\033\275Z\332\030>ll\253=\373\251I\276L/\236=\241O\037>U\327\253=\221a\212<\222n\024>\317\252\310\274\177\n\212\275\232\302\025\274\003{\027={\220K\276\020rR>\320\332\016<m<\300=\275\034\006\276\372A\312=\221\222\301\273\214\377\303<\305\037\007\275\371y\270\274\027\2571<\316l\035\276\346\307\303\274\024\317\272=%\270\270=\200\361\255\275X\013*>\313\272\031<pb\213=\256\270\303\275\253\317\205;\337\243\237\275\224\367$\275\263\362\013=I\2236>\200\230D\275\341(M\276%\2761\275\377\236\302\275\025B\211\275\237\243\204\275H\253v<\216\304\376<\271o\004\275\364\252\266\275\236\021\010:\240\013\370\275\336\343*\274\236A\263\275F\252\r<<\372\014\275\370b(=\332/6>\266H\221\275\257W\265=(\264\232\273cd\251\274U \032=\330v\255<\326*\027\275\030\004\322\276\253\'\027\275\277<^\275\210\206\014>\2402#>K\023\204=k\037f=\013\203\037\276\272\265\306\274\r0\000\2760\324\206=\3623l=T\3413\275p`\001\274\344T\232\2740\315\n<J\251\003\276\303Qb\276\307\324\250= \342G>\265\223\353\275%\305\347\275\262\221Q\2763l7\271Y\210\032= ,A\276\261\335\010\276 \220\037=\374\206?\276\367e\002\276\312R\307<\374\213->\325\001 \274\000\324\230<\246p\335\274\377\226\034\275A\360\n\276\200\272\226\275\217\206x\275\003\271\\>c\221\325\275?a\253\274_\231\244\275\020\226S\274,\\\362<\333W\236\275\027y\273=\363\352\020>\002o\212<\274v\"\276\010K\206=\366jA\2755o\233\275\373\016\214\275\243\270\340<\352\355\234=\373\320\001>eH\215=\313A\210\274\221_\335=D\205_\275\245\234(\276c\223\357\274\023<\212\274\251\327\032\274\310\224\231\274)\371\005>1\274\200=x?\002\275\361\352\251=\306\363\262=sg\001\276p\031\034\275\323\247\264=~\315\212=\037\332,\276\261\'\226\274\264\257\020>\336\251\320\275\314\234\310\275\376>\333=Jh\340=\243\370\357\275\277I\344=n\256\023\275\242\026\362\274\001\021\007\275\331iF=\267?4\275\212T\254\276\033\2000\275F\257\261\273\210_\216\275\310\031N\276\017\377\300\275\346D6\276&_\304\275\202FM\276#?)\276\026g\225\275o;\222\276\345E\347=\213@\\\275W\322\304=p\212\006\276=\330\232=\311\354r=K\245\257\275L\255\213\275&\036_\275\361\233\007\276(\257\027\274\246j\307\275\253\"\332\275\030)\275;\001\205\252\274\315\022\002>#\016R\275\210 +=\357E\000>\211\262\036<\246\006\334\275Y\372H=9\266\204=\241\212\032\276\004*\3159\357\223=<w\013\020\276Ig<=T\213\220=\210;\004>b\204\207=^\345J\274\221\271k\274H\301\235=\265\322\250\275@\273\0309\370\355\010\276\276\004\322=\337\036\210=t\200\021\276\210\266\215==\313\307=\364\321)\275\177P#>\210vO\275\"\217o<\202}\240=\017)\n=\266\317\332\273\273\223\'\275>\310L<\334\2717\275T\001\177\276\377x\210\275\327-1\276\237E\027\275\203\262h<\244/\325<\305\221\016>\010\372\270\272\356\233\035\275\261\006\302;\025\221W=\301\335?=\266\0249=\324]\243=\327\023\016\274\255YY\275\253\223\320\275\246\001\207=\n\337\333\270\223e\341\275\220\311\025>6\001\260\275\031\357\r\274\326\377\315=P$\373\275f\251\t>nvS=\212\370\261=WJ\357\275\216\362>=\n\371i\274.\216\345=8\2767>[I\232\275=v\261<s8\207\275\rd\303\275-VN>\220\372\221\274\316\377\262=\'\022\367=\2112\202\273\334\313\320;e\261\n>Em\255=JQ$>?\374\214;+\264\265\275\302\273J>\362Yr=\374\371\310=r\200\020>\022$R\275\346\347\233=\006\232\300=\232$U\275\355~D>\276d\277;\222L\331=Jc\356\274>\003\353\274\360W\256=\242\226\202\274\323\236\t>\252\\\252\275e\022\321\274\256d\273\275\004\240\307\273\214F\321<D\357\261\273\'\326\375=\333\210D\276\365d\014>\035\217\274<\360\300\352=\244\014=\276<\214\006>Q\217\337<\000\031g\275e\314\224=\251 6=nf\'\273\\`\260=t\3365\275\341\005<>[\341\321\275\360\327X;\360\220#>\016\235\236=\251^\227<\007\225\271\274\206\"\r=\226\323z<\340N\256\275\342\346\022=\366e\301\275?>b\274\251\260\020=\212\341\362\275\003\370\344\275\200\220y\276*\230\240\273\222{?> \010:\276\260!m\276{-\301=\303\220m\275^e\203\274\2419\210=\371h\367\275\027\241\032>r\225\200=\233H\014<\302|$>\024\255\322\274\361\314U=G2\326\275\002\031\360=]\020\363=\232Sn\274\004\267\330=\016d\231\274\337\253\362\275\351\234\254\2759\350\331\275\206\n\315\274\361g\225\275\\\257&>J\322\232=\276\370\364;\270\313\202\275\r\325\006>\217\r;\275\'\336\300=\341f\026\275\315\3710\276X)\332=\364\232\254=\363n\014\276\276\013\304\274uK\254<\010\355\276\275\262\025\005\274bb\271\272\222\257\227=\t\336\003\275B\362\2009\016\225\204\275\237\335\026\276\343\216\270\275\031\362N\275%\"V=Y\251\364\275NI\311<\237z\211\275\370O\r\276\344^\312\272_\014\307\274\222\030\347=;\347P<\025\022\025\275\220g\372=!\003\t\275\217/\267\274c\342!\275\214D\027=\212:\004\275\007v\324=!\341\224=\360\034d\275Oj\035\275\354*\236<\327\204\347=\323\273S\275\331\035\334=T\325\357\275o\032\340=\031\223\353=\021.*=\243\226\317\272\306s$>\341 \n=DV\252;\001\257$\274B\247\223=\265n\344<bQ\032=\230\323!<\367\274\020>\005D\355\274\t\210R>\032\224y;\177\246\250<\264!#\276\267\022\245\275\n\265R>\243y\314\275`\243\302=:M\227\274\344K\372\275|\375\251\275\235\232y\275\300\344\244=|\026C\275%\315\300=\214\021\001=\371\2470\276\332\225Z=\305\347\214=\353\237/\275\305\260\226\274\300]W>!\003\030=\344\021\016\275Y:\334\274OY\370=_\t\230=A|\353=\256\247j\2758\3423=+\247\312\275a\352\2269\353\334\214<\301[\014\275\303m?\275\004\241\033\276\3769\001\276;\237N<\372s\220\275R\237\026>{k\362<\334;B\276*+\232\275\236\275\371=\312k\366\275\222\031\360=\200-\254\274a\t\313;9\035\001>)Gj=\264\232i8\377\350u\274\r\355\314\274\315\301\303<\323;\366\275i\303\205=\020\277\027>Ig\201=\210b\231<\\\326-=\201\225/\2759j\274\275\302\225h\274a\\\356=\231\327U\275\002\361\363\274;\322o\275m%\021\276`e\251=(\327\002\276\377\004\223\276\3254\310=\346\t\031\276k|6\276\262\304@\275\337K\304;\0345\236=\035^\327;\266\300m\273}\001T\275\213\345\035\276\025\360f\276\350\313\034\275JVv=?\320\226=\004\236\242=\205|\301=f\250\031\275\014\301\034=\370b\032>\235\237\021\276p\250\255=l\266\030\275I\374\271=TT\210\276\306\353\227=H \247=\220f\227\275S\364\241=t\302\300=\212\277N\273\365\014%=5\316\377\275<\240\327<\377\036\n\274)\323B>\177\206\213\275\254.\t\274\233\361\237<\262\204\020\276\033\2021=7yt\275zH\354\275\210\204\270\275\352\0019>\350\211\235=\352\361\214\275O\234\205=\370\t\202\274\277\023\017\275\353\030H\276\243\211\375=\014\240\344\273\267Qk\276\311\305\"\276\201\342\346\275O\355\036>\274\334\022\275L\352\316\274\206\035\351\275\343\212\'>N\307\231\275,b\273\275\236G\001\276*\002\251=6\017H\275+-\356\275\313\232\312=q\326\315<2\340b=\320\237\021\276\3628\"\276\341\273\005\276l\035\016\276\324A~\275\252\263:>\356\267\017<w\231T>\245\255[\276\370\037\303\275\2456\225\275Ss\346\275\332\202\220=(ZR=AQ\311\275\277\3036\276\252\201\333\275\014\266\256\275\344\375\027>X\233\367\275:P\027\274\n\201\267\275\2504\316\275\273\261\203\275\356p\316\274\177\210\224=\2708\217\275!\223e\276\250\200\365=\326\n\242>\252\307i\272!kp>2\243\352\274\252\267\203=@\342\236=\t\262\027>B\336K=\373\030\257\275\366\341\200=\222\301\031>\333\201\014>r(\220<\257f3=\355\376\214\275-D\"\275\211\337\274;\305\255\325\275\223&!\275\256\357\302=\205\332\006=\313;\352<3\365V=C\250\004<e\221n=\211i\272\275\304\017\205\275}>}\274\0038\231=-\242\r>\202o\037>[\375$>\264\034\240=\026F.\2765\"\r\276\345\t\3409\352\025\355\275\312m>\276kg\026=\'\224\343=\210\346\252\2753\364\014=\255\2555\274R\356\202\275\'\036\312<a\3011\276\312\202\255\275\226\r\334=\275\245\000\276Zk\007>\335W#>\246+\036=,\221\316\275\336\261\245\275\264\332=>p\316\237<\335\333\006\2745\271\036\275\313a\306\275\344\212s\274\257\222\"=\'\375-\274}4e\274\3274\223\274Z\0261>\3715\245\275f\365\363\275\316Xl<\306d\253\274A,c\276\331\\0\275y\201\324\275\003\357\001\276\t\3401<\376\372\226\275\232\207\245:N\313\360=AO\r=\235\315\251\275\372M\334=)\003K\273\331\272\363\275RX\347\275\341A\005\276f\213\314\275\221\247\037=\206\270\223<\232\006\215<\261\312\203\275\275\324S\276\276\3701\275\360\267\005<w\032\251=Xe\234<yF\017\276.\017p\276\363\253\205;9\334\361\275\304\t\245\275\277\375R\275Zd\240\275\255\307\265\275\tAr=W\014\267\275\2638\224=\216\242\326\275y\235\256\275\262\3557=\3762\234\272\217\271F\275n\356}\276\260\223@\275\272\2104\274\027k\030=6<\376\275\262\304\013\276\373j\354\273T\223B=e\225\207\275\212\374\217\274\314\252\036>=\354d\274\024L\273<\344\337 <\316l\245\275\276\004\220\276$\363\010>\257Q\025>\357g6=\211\312\321<0n~=2R8\274s\367(\274\350\256\310\274\347\214\200<\340\217\267\275\\x\316<D\246\007>\"\010\014\276\311Z\034\276\t\375\305;\376O\034=~\365\341\275\t\360\005\276\034\375N=\372\230\025\276\227\003\202\274\320\325\312<Qp\221\274\344fY=c\'\245=\353\356\365<\023\021\232\275\333\362-\276t\230\310\275\033b\324=\252\343\316\275\223\206\355=\036@\276\275\304A\307=\375\357P\2760e\352\275]\2724\276B\177Q\275\275\204\377\273\333\253\347\273\301%\223<\t\240\302\275\376\336d\275@\3719=\371\273\001\276\341i\347\275\036\346\232\275D\341\n\276\336]\220\275\340\331i=\373i\242;y\350)=\002\213\004\276\331y\002\275Y\312M<\025\245\254\275c\364.\276\021\266\372=~~\315\275\343F!<\212\204u\275\230\025I=\021\202\031>i\341N\276?\264\330=F\001\251=\300\315\213>\ro\033\276\331\200\331=p\022/>\250+:>\341\223\267=\330\364\317=\035e\363\275\004\227\212<]\014\330:\212\222\240=D\243\004\275c\252O=\360J<>\262\266^>\376\234\253=)\274:=\325o\217=\020\210\345=\364\361I\271*\004\367=cge=b%Y\275\236\245\030\274#\033f;Wf5\276\372\312\330=K\257x\275h\025*>\267\2417\275\014\365B>\320\251\242=;\030h\276\350\250s=\332\333\361=\342\311\324=>!\314<0\3424=\235!\230\275\311\325\267\275\332\212k\2765\320\215\275\237\2208\276\344\223\030=\204\311\213=&\236\210>\032\367a\276\301\313\217>\342\032\205>\222\275\341\275ZgB\275\274;\245=@u\033>i\253\"\276{\021\002\275\270b\014>(\365\031\276\203\223\023>\245\333\245=yp:\276\251s\304=\374\0105=\303\252\036> o\026>Z\240Q\276\021\014\205\276\033\260\r>\242\216\\;,\253\224:n\217,\275!\013\337\275\323\032\347\275f\344\244\275k\206\210<\314\373z\274\034\304\365\274}U\024\276fd\022\276\262\262\200\275\232|\260=\n\312\\=\225\346I\275\317Y\333\274\313\032[<%1%\274\013\230\002>\353B\214=\003\255\023=1@\347=C\316v\275`\'\035\275 \357)\276\025\332V=\003\031j\275z\226\365=5]\237\275\210r&=\366\362j\276[\251\266\274|j&\276\224\r\'\275\312\020I\276\241/\201\274=\026B\276Ct\242;\356[\231=\213\373\310=f\024I\276\366Y\240\273\2567\362<\177\037\227\275o\230\034\274\217\027\236\276TO\352\275A\025\353\275vs!=\226\315\371\275\237\201\230\275DuB;\343\343\362\272,l\220\275\241\235<\276\037r\375\2742%\022>\214%\342<2*->\345\321\325\275\270\206\375\275o7r\276x\314/\276\220\334\340=!XB\274\203\237\310\275\252\272\177=\277O\'=Yx\t=\342\251\267\275E\242\265\275J\322;=\030\n\014=\024\3376\276\251\213`=\200y\375\275\005\362d\274\242\343\n\276\204 \007\276s\250\312\275\316\236\304\273R\342\273\275j\003\210\275\241i\002=\276U$=\365\306\222\275\216s\241<\341\010\214=tv\241\275t\277\333=\312&\036<\221\0250=Xk{>e*\256\275\267\265\312\274\370\373\263=\332n\341\274\266\n\314\274p\024\202\275\030\345\037\276\354\000\257\2746\274\247\275-\035\334<\003R\002\275tU\036\276({\r\276Z~\271=\353\3726\276*\334\027\276\326\213-\274D\235+\275\255\303\357=N\305\023<%\"\325\273\351\211\203\275]\372\252\274z\217\215=\261\350!=\2749}=z\304\305\275\235\004\305=\333\211\246<\247]\n\276\373\253E>\ns\331\274g8H\276*\225W\276\3403.\276]\222\271\275\320\277\373\275\344[9\276\037|\007\274\335&\261=\220E\013>\257b\373=\356\350\005\276\177vT=\203f\352\2755\362\n\276i\205\230\275\220\207\177=\361\375\301\275G7\235=\\B]=\261Xf=\264\375\311\274\'\262\374=O\203R=7\224\356\274\000\274\370<\211\004\244\276\235\002\031\276\r\215\233\275\345\300\300\275K)\265=\346\357r\276\366\212M;\220\240\317\273\006L\363\275EC\327\275k\3504\275i\316S\276R\321\205\276\023\253\023=\031o\376\274\007\364h>\271\3502<y\026\342\274+V\252\275\216k\373\275n\214\241<\216B\314\275v\212\324<\342\231!\276\265\242&\276\206\304\240=mex\276\247\030\250\2750XQ\273A\307\313\275ne\264\274\247K\020\276B\302\022\276\347\334\345:\376\270\316<\025\206\301\275F\226\206\275\240kc\276\307\216G\274h\372\201>\224tW<\025\203\236\275\220\330\312=R\2724>\003G\217=`\224\026\275\220\344\341<\334;\314\274\357\026\017\275\363Y\326=\244\225\206\275g\350\257\274w\034\363=Bn~\274\013\277\023\276\270Y\213\2760t\320\274I\210\014\276\216Q\207\275\2526 \276\344\010#>if\361\274|\265\201=X\377\376<5\327H>\270|\200=\200\302\017=\262\014\355=Q\213\177\275\274GA=\361\222\343\273K`\014>!\365\245=a\235\002\275\305\232\371=V%>\275_\022\003=\345\370t\275\260\251K=\333\307\200\276]`\343<|\315\025<\337H\310=\332_\261:\332\246\002>>EK\275\353\355\007>\"\223@>\276\241\251=\215m\034<%\321\'\275\213\222\007\276\211;\307=Mb\225\275\332\321\264\274\372\312^\275\325\367t=\203\0308\274fl\030\276\265\264Q\274\022\220\204\275P.E\275;\024\275\275\231\335;\276\305\312\230\273ic\227=\267\367\324\274W\225,\275\030n\016\274<.8\276+\230\230\275\374\342N\276\201\236N>S]0=%\312P\275\367\245\244\275\351\224\034\276\376\303\353=\t(+\273\213\205\224>/(\227\274\021W\341\273\035\370\214\274\216\252W=\233\003[=\232\032\216=\376\261\234\274\320$\003>\310\231\276\275\253j,\276\212;j<lm\353<\020\227\310\274v,k=\354:\233<zn\254\274\027\010\232\275\250V\273\275\'b\207\275\032\377\265\275\217\362\027\276h\030\352\275> \375\275\341+\031>\237lI\275\337B\362\275\3320\241\274\265d\014\275\255\361\001>\251\321#\276{]\026\276\025\203\242\276=,\014\276\324\355\246\274\262m\246\274\342\200\252\275\344c\223\274\027$\002=\206\366n\275\376\205\034\2763\014O\276\331-\030\275/\327\010\276a\306Y\276p\t\274<e4\356=aT\311<\346#\337=\271<}\273\326\270\343=\324\017\020<\363\345I=\353\r\006\2759\200[<J\352\262\275\263\002+\275\010\315\371=\250\025\375=C\301$=\2658*\276sT\001>u\014\252<\022\342\3609\335\230\306=)\347%\275\236X\034=\256\345\375<\346\363\266=\231\310\273\275\263;7=\350g\233=\360\321\022>o\356 >\2576\356=\016\252E\275\267\260\361=\3618C\276\210~y=\021\336\027\275\203,\033\276\324\367C>\'E\016=\200U/\275\247<,=e\231\314=P\230\013\276\223\364F\276\273 \317\275\302\343p\274\374\233\t\275\252m;=\32627<\252\001\200\275Do\r>W\233\360<\313\216\r>\3344\232\275T\226\312\274G\356\273=\237F\014>\010\237;\275X\330H\275`\021\364=\317\346\261<\313\264\223=\371P\242=\303\320\361<\363\313q\275\213\364\364\273\333\317}\274\001\255\032=\016\230I=\315=\014\275Y$\000\276\244\201\347\274\212\346\013\274\321\001A\271\203\177\200\274*\3034=7\213n\275\372\314\334\275A\372\214\2726\253\312\272\260(\326\275\300u\362=\347!2\275\362\242\333;1\330\005\275`\326\231:\221%K\275I\025\022=(\213\r=\221\337\256\274J?\305=\277V\213=\213\321\267;\367S?\276\350.\372=\221\024_<\200\026\337\275\277<2\276\020\323\022>uK\250=\310\300\326;\347p\370\275c\246\305\275\001x\376\275~\2313\276\376\301\321<l\373r\276\324\265\010>\022\212\341\275\004\205\316\274K\256%>j\321\020=\n\355L\275\353\273%>>\177\270\275T)$>\027D\353=\2250\247=\214\034\300\275<\266\026\276\360\016\257=\214U\335\275,\006\321\275\341\213\212=\320\3348>\031$U=h\216\013\276\307\260\267\275\306\344\371=\020\336a\276C&\376=L\326\205=X\310\307\275\274>\335\275Z`Y\275]\372g\275\267n\031<\260\217\007;\251i7\275\267\211n\273\357\361\353<\335\013\016\275\3021w>\246&\232<\222\007G\273\330\036\252=\300\261\014=\355\034\304<\345\023\207=\305\204\t=>\223\271\275\365\033Q=\274p\370\275nv\026\2767\004{=\362\214\234=1\306(>m\324s\275\361\352x=\215\231\014>\022\202\355\275\344S\367<\332\202\013>\360\213\033=8Q@\276 \312d;\226\266\276\275\231I=\276t\036Z\276_\247\021>\020k\352\275\036v\320\274HH\352\275\337\301\025>\344\257I<\275\240\351=\366.C=\032\333\205=\250\341:\275\356\315\226=e\031\333=\235C\020>K\312^\275\322\"\005\276\250\354[\275\216\\\203\275lr\253\275J\226\254=\006<\342=\315D\014\275\351\2145>@\365\016\275\317\271\362\274\363\271\"\276<\020\226=\313X\037>[\213T\275\265WC\275\034\221\033\275\303\314\245\275\237\2002<+\t>\276_\331\210\275 \023\002\276h\\\017\276\227\237~=@\373\314\275\361\000\342\275C\214\325\275\364\217\234<\200\310-7\244X\031\275\307\024\327<\257\207.\276\313\"\337\275&\017\032>\317\243\033\273\326t\212\274\205\337x\274t@m=JX\016>p\362E\276\306\206\237\275\261J\250<\200\177_\275W\220\236=\025m5\276\032\271\377\275O\357\305\275\202;\005\276\325@\231<\225.\306<\250\025\355\275%X\345\275(\024\330\275\332\251\252\275HBz=\303\254\234\275\033~|=\354\006\303\275\275\270\201\275:\366i=\364\"I\276\373q\346\272\275\303\005\276\272\226}\275\r\"\306<x-A\274\032\022\225=\313\035\025\275\341\272\335=\256$F\274r\252.\275\320*M\276\240O(>\356S\244=)\257(\276)\221\377\275M\001\375=\340\034\346<\333#\026\275\021\216\242\275\003\310\325=\021\n\212=Q\352\376\275#\312\354=}A\240=\3311$<\263\204\226;\034\203\251\273P&\346<\352\373\010\276\210\255\216\275\216\026f\275\244\315V\274\264\3216\275\210\235}>\3015P>\300\262U=\re!\275}\343\313=\335\352\254<\276;\256\275\224\324$\275Q:\027>3\003\215\276\335\263\364=&\351B\273\332\023\311\275\371\300&>\263\023\001\276\2326~\275\003\316^=u\377m\275\207\260\307=\363q\036>\276dT\276|dy\275\251b\300\275A\030\257\275\211\r\210\274\030,^\275v\246\020=\357\335/<\354\225\255\274\271\227\013\276\304KE\276\357.\017\276\2638\214\276\227Z\346\273\250\370\250\275\247\271\t\276\337/\321=7\320\206=\352eT=\017L\020\276s`\\\276\353\224\306\274)4L=>\272\005=\202H\266<U\322\232\275?\225\201=\210yF=4\036\026\276\262^\221\272\001\006\311\274|8b< \252\322\275\263\r\272=\223\027)<\371\245\204\274\n\330\352\275\r\034T>\304\341\177=\256\"\266\275\350\'\276=\033\221\234=\346@\377\275\212x\007>>\210\255=\204\365\236\275\302\032\305=\320?\263\275!\002\245\274\310fR>\201\325\317\275\025\206\254=\265\234\257=\037\325m\275\204\217\213\275it$\276b\311\314=\237\025\373=\024\213U\275\247\332\033>\025[\024>n\215@\276mMR=\222\262`\276\276\223y<m\274\335\275\274O-\273\207\264%\276\241.\240\274\326\224\r\276\017\036\226;\332|\366\273\263Wd\275\232m#\276hJD=\035\362s\275\254\241,\276T\207\036\276\324\222\210\275\375e\007\276L]\306=\333\322\373=V|\362<\033\300\346<S\275\352=\305\017\217=\245\311\351\275\'\037\355\275\354\250\353\274\354\023I\276\205\030\241<\276\376\325\272D\030\303\275f\275\006\275)\024\030\276\351\212\241\275\265L\021\276\213\206\310\274fa\220\275Bve\276\224\300\334\274\177v\240>\227\005M\276\235\222\022\274\222\010\227=or\257\274\324\301)\276\372\355\300\275\007n!>-\353\023=\264\273\202\276\310:\025\276U\277\231\275D(\307>v^\022\276\0327\312\273?>\233\274\352\267@\276\365\376\002\276\335\244\t\276\214\326\243\272G\234\005>O-\274\275\337r\212\275_\355\260\275\304=\254\275\336\351\211\275\373\243%\276[;\333\276u\334\237\274\317\2767>\017\332.\276?N\220>\254\303\035\276\211\010\340\273j7\251\275x\315\327\275\304]I\276%\253\257\275Bp\360\272Be\331=\300\024\003;\005{\002\275\202%8\275\036\241\337\275\275\330V\276\333\202\256=:~Q\275\231\220<=\236\271\230=\250=\002\275\300B\237\274qx\027\274\235u\247=R\003L=\003\303V\276\036r3?\252\271\227\275eP\373\275e\377\366;\335C\317=Q\344\004>\247\206\326\275\227\340h\27547G\276;\034\250=\255\3445>y\023\245=b0\207=3\277C<\227\337&=%\234z\276?\223\330\275\372=\241=\312\226\264\275\024\037n=\340\227\340=\251;\r=]\2344\276\026\247\235<\350\260\266=G\037\223\276\264\034\371\275\\]}=\206\213\021>\025${=\031\354\020\275G\302\370\275\330\374\337<\223o6\276\223\017\354\275\353\244\254<2\001\003\276Ph\273=C\200\245\274\'T\020\275\312\302\023\275lG\001\276\274\311D>\032\215\3739\233\177\027=\335i\265=?\301\263\275f\271\204\276\345\324<\276i\333\r\275\000P\020=\216\327\242\274$*N=\253\256~\275\375\311\302\275\005B\301\275V\322\\\2763M6\276\222\256&<\035: ;\315n\010\275=\370\213=\365J\221=\177@o\275\262\230\n=\261\231\023\276\344\264u\272\334\\\330=\313|$=\350u\360\2746o\312\275\353\351\217\275\316;\313=\257b\227=\373,\211=-\322\241\275d\352\320\275\010\200\362\275\310~\333=\022P\026\275\'\365g\276\314c\343\274`\'\227=\314^]=x\251\362\2720\0232>\226`\257<Y\330\003\276\203L\332=x\315\206\275\253F\014\274\273N\375\275[o\005\272\264\364q=\222\243\323=\216\307e\273\216\306\006\276\351\324N\276TC\245=\034W\001>.\364]\276-J\267=?_S>\014C\036\276y\3721>T\214\202\276%\t\352\275\223+\341=\244N\275\275\205P\004\275\352\021\031\276d\366\232=m\031\031>n\255x\276S7\037>{;\220=\260\357\354\274\220\227\200\276\370|B=C\356u=\217y(\275hw\345\275\003~\264\275\321\261\217;\372\271?<6\354U\274}\350\016>,\347D>\356\'\364>\216\217\200=\021\034\001>H$:\276\001\351\241<\240V\324\275\035\006\203<|\303\323\274&y\265=<\033\004>\004\203\031\276J\320\000=?Y\344<!\n\333\275@\237\225=\245\231\235<z\032\017>\027\237`\275\031+\303\275iy\317=\311\344\325<5\010\026>\017\266\'\276}lM\275\266\226Q=\237\362\r\276\266\352\202\276\321\243\266\275\t\211\241<\357\351\225\274\373\203\262=\230\304\256\275\0021\356=\261\204\311<SR\361\274\232cy<\372\014\317\275>\377\271=\257\361\372\275\"?\003>+\275\024=\225\"\367\273\003*\001=\302\234\323\275\345\200|\275\312\013\266\275\333\r>\272B\350\211=\320\346o:\246Cm\275\204\342\343\275]\221\035=.\002-=\202+9=\014\205\223\273\r\216\350\275R\334\254<\021\360\003>\033\277\302=-\021\352;\034\300\317<\233\372:>\377\363\233\275o\271\200<\n\213\237<\344\220\206=t\260\312\275\312PE<\315\323\303\274b\370:\275\260\345\003\275\332W\354\273n\345\263\275G\020\010>\323\007\242<\227\017\227\275\016}\302\275\332\346\275\275\247\210\356<\3518A>(h\310=t|Y\276\266D\014\275\340\371\357=\342\326\220\275\202\024Q>\275\327\032<)\332\311\273\317\256\201<\032QE\276~3\006>\376 \023>\221\211\250\273BR\341\275\254\253>=\270\002\031\275k\231\215\275\266\003\211\276\243\204?\275B\t\034\275\025\217\266\274\266P0\275l\210\014\276\244l\377<v\307F=\375\200_\275\032\274Y\275\362\256D\276\" \246\274|\356l\275v\314\003>\3527\004\275\243\316\013\276\211n\017\275d\373\340\275`,\352\275\203\207->Ef\326<\037\343\031=b\245\021\276\305c\027>R\311\010\276\370\025\231;\020\244\316\273!\340 \276\252\2212\275\0351\025\275\2633b\275\031\263\027\276e\306\263=\263\006(\275o\200\217\275\264\367_\276\230\0259\275\273\335\000\276\346$\327<O\203\334<\027\201\347=\231\022\250\275G\351\215\275\374s\351\274\243\254/=A\343\016\276\217.W=\251I\036>L`\322\275\221\"7\276\275\230]=0\030\036\275\263\267\364\274R`\r<-/\">\303\311\002\276\202\013\233\276 F\371\275\242\257\345\274\211\211Q\275\241!0\276\000\350\003\2712\377\226\275\236\2737\276\372E\220\276\276\034\333=\303\322\021\276\177\200\014\276\204\225\014\276\362\022\266< Ac\275\016\0246=J%\352;\273\250&\276\226\241\376\275\234\261\244=\351\273b>\200\"\306=\347\365\314=\327Ei\276@P\210\274Bu|=\367\2612\273\333t\244=3M\023=\027o\315\275\"\271p\275\360\345\200=J,\363\275\277\207\353=(\361\034\276\200\364u=\365\346\006>h>\240<w\304\364\275I\270\n\276\236\204\213=Vn\327<%\374\207=\010\220\336\275%\201n\2753\365\010\275c\2360\276\250\216\025=\364U)\274\376I\037\273\rI\237\275`\000\017\276\334\253$\275{DJ= (\335<\233\327 \275\226\351\n=\310\010,\274}\370\200=\210\2656>e\344\211\275E\271\212\275\304Z\031>\367+a<\'\203\323\275p\377;\273\364k\227\275g\033\272\275\266&F\276\247\2558=\331\265\372<\013\020a=/\370\247\275\324\264X\274\341\036J\276\360\217\351<\374t\024\275\331}\032=fQf\276\032\360\317\275\361\342\000=T\342\213\275\261\256\242\274AI\354<\004\035\034>\222\343\300;Zx[=\366~\r>\006\247!\275=\312\020=\361\211\035>\245D\230\274\003\273\004\276\020\272\003=# \374\275A3\006\274\377-\254\275%\372^=\002E\032=\031cN=h\365\255\275\367\235\327\275\3506\250=(\374\223<\370\374t\275=e\024\276\020\n\374=\020i\253\275\240m\244\275\207z\306;\347\251\303\275\255.\220=\3423\302=\246\342\002\276>\337\306\275\361\024i=\361\315\r\276O\022\225;2\325^=\222+\273=\003*C\276\000\321@\275\244#a\276\255\023\234\275\232G\267<\376\220\217\275\324\210#\274\367!:<9\371\342\275\263\355@\276{\311\007\276E1l\276\333\031E>bMo\275\323X%\275\2671\251<\022\350v\276\35153=d\312}\276\204P\300\276&\276\325\275\233\332^\275\210\220\n<\375\023\322<\337^?=\342#\254\274\036\204!\276\355\345\342<\353\023\233<\243G\024\276<&\234\273\313v\222\276\232\351\r\276h\252\020=\257};\275\302\230\306=dsJ>\023\220\223\2743\373\327\274f\321=>\231\024p\275\326\204\000>F\024\016=+\230\312\274$=\325<\337]7=\333L?\274\177\330J\276\264\310\234<O\216\"\276L\002\r>o\367\273=\276:\326\274]\222J\276|\024\252\273\324\314\025\276\234\261\006>\331!\355\275c\300\353\273\274g(<6\007\376\274\311\256L\276\345\373@=\032\002\252\274{\031s\275\303,\274\275\253%\253\275(\014\217\275\206<H>\367xT\276\222\246\210\275\220\262\005<\035M\370\275\232\276\231=3\347-\276\020|w\275A\337\\=i\324{\275\203i\240\275\253\326\214\275sx\237\276\204\272\371\274Z\035\244\275.X\006\276\222p\227\2750\267\204>\001IL<\202P=>_v\264\275[\372\340\275\"\207\027\275G\314\241\275\341\021@=\033\357\370\274\025R\234=HCq=\371\204\310\275\034\332\366\275wp\037\275\023\224\244\275f\026&\275[\036\005\276\315K >\244e\253=\035N\216\276Q\307\031=\216\007+=\037\322\030\276w\376}\275\333\007G\275\377\366(<\327\306@\275h\335\010>7\231\351\275BkF\275\000\327\002\276\336\210)\276\246}t\276n\3779\276%\031\355<\342D\017>\345\262\313\275|hj\275\370\220\217\275h\365\340\275\0245i\275\006\277\342=\216\006\251\275\361\352\014\276\372e\250\274\301\013\007\276\0005\262\275\251\021\301<\244!\016\276DL \276;\365m:\210N\373\275\264\303\004\276\373\257#\276n\377i\275w\253\362\275L\373\336\275\327\375\373=i\300:\276\301\243.=f\226\217=\006\216v\276\274\003\224\275\306u\314\2757\021S\276\023:\272<\270\312\230\275tz\303\275\022\212u=\333\233\n=\270?\360\274N\035\257=p{><a}\t;%\320\250\276t\223-\2736\313\007\276*\321\027\274J\320\231\275\036\256\t>\001~Z\275\273\340E\275\177\020\336=\336 \230\276\244\222\004>\374\260\'\276T\372z\276\021\203\316\274\260\311\346\2754\273\341=S\353\311\275\354\026\t>{\331\316\275<\321\362<~Vt\275P\007\311<\354\002F\275uY\264\275f\247\232\275\222@\255=\234\372\206\275\3450\231\275\313kF\276\273\335\227\275\352T\303=\201\021\031>\022t\223=u\251\237<\246=\016\275o\025\r=\354\240\316<&\332\236\275\306E\326=\310\334\223:\337\227\245\275o\370.\276\347\235\236=\310_)>\253k\311<\360u\256=\36411>W\033\207<\033\037x<\251Z\033\276ZZ\314=^B\001\276J\213\014\2755m\\\276\212\340Q\275wS\202\276\214\030=\276\376\032\255\274Y\313\217\275\003\342\030\276\367\214\233=6\225+\275hJ\377\274\274\330\306<#=\032\276\204\357\032\276v\305\214\275\036eJ\276\2631\221\275\022\3014\276\324\255\214\275\352\365\222\275\244t\324\271\027G\322\274\020\013X>\t\327L=\2506#\276\000\2433\276V\035(>\316.\363=\362\3272=<B\231\274\2276T\275w\350\265\274s\177\311<s]\220\275X\221p=\212\302\234\274\034L?<0\240\205\275e~\333\275g\254*=\330:h\275\371h\206=m \340\275\211\210\320\275\241$\231\275\321\035#\276\253\241\304=\350F\242=a\211\240<$\365\265=`\345\037=\222\225\224\274\202\341\r>\326i\r\276\331\225\211=\277\321`==\327\024>N\005\007\275\"\262M>\270m\002\276\023\277\030>\263\006:;\3253\221=\024\025\014\272\\\377\270\275\333\370\322\274G\271\021=Z\221\014\276\205P\222<\035r\007=lL\317;w\337\247;\362\0277>\331\377I>\313\031v<\311\034I>\037\021\000\275\\l\n\275\335\034[<\234\301\246=\030\021\272\275%G9>\316\346\272=\231-/>l\354\354<\006\020?\2741l\020>0\240\244=\336\373-\274o%v\275W\351\036>\221\202\310= \342h>\305\333)\275|\344G<\271\\\270=\267-\033\275\020\001\">\353Dt=\342y\374=\017\322\273\275\211\000\374<\'s;=\024\203\331<\337\264\261;\246@\332\274\023\267\343<\332\214b=zN\007=m\251L<JnN=\217i\031\276m=F>\257\273%=H\222_=:\224\024>\357\372w=L!\254=\207D\270=\0350\312<\373\215\303\275?\0134\276A\354\231\275A6\025>e\216j\276\032^\236\274X\242\037>1\320\247\274s\302\315\273\265\224\341=~1\356\275\000\017a\272\\)\220\274^\200->7\211%\276Z\207\332=7\276\266=7@\214>v\363\375\274&}\210=\227\223&>~\200\263\275\030\221\256=5h>\275\306\326\344<\276\224\220>\225\224\001>\262ji=b!m>\351\366\237\275\266p\217=\275\242\">\252\367f\274v\266v\2736I\325:\343\017\317<Lc\320=%\331\253\275\271X\314\275\315B\246\274G\300K<E9\346=\271\336\007\276\302\216`\274\321\257\037\276\317\254\001>L\006\200\274\222f\260=\212\367t\274W\357\216=`\337\234\2749\2462\276?-\022=\326\351\t\2759f\255<h\234\213=\003\230}\274\353\2707\273\253\241\234=\326\266T>\247S\256=*pN<D\225\231=9\232\335\275\023p\303\274\371A\341\274\310\037\002\274\320\340p=\366V\263\273)\310\206=\022\215\314=\2601\361=\'\363\353\275\355k\016>AP\235=\345\232\022\276\327\253)\275\235\024\n\274\202\266\356=\004\232\223\275\177\277p\274|\246P;;|=\276D\013\002=\307\271\024>F\\\246=\226\360\375=\\\233\035>\324\377\323=\306\331;:-\322\373;\212\223\022\275\347D9=\375\002\244=\024w\306=4@*>\031\2464\273e\316\355=\316\272U=<\343\266\275\301W\313=\345\341\237\274\263\020y=)\271?>S\2351>\351n\310\275\220\314\007=2\204\020\276\"\262p\275ev\247\275\007\203<>\3628\t;l\347@\276\031\030\220=\312\333S\275b\2032\275m\242\227\275\354u\326\274f\347\342=8Y\021>\317\304\374=j9\016\276\037\346v\274$\022J\275\340\325\030\275\213\236\344=6 \030>%\333=\275\272\361\375<{\362.\275\254\227\324=v99>8Q\300\275\264V\034\275\377gr=\205\366};\376h\022\276\346\364j\275a\230O>\227o\">F\031\216=8X\215=#\212\020\275\312\030\355\274t\334!\275\210)\224\274\327\004\262;>\320\256=\276\201V=t\333\326\275\222\363\017=b(\261=\030\375\016>\370\256\215\274\342\004\t==\r\344\275=\231\013>\257K\344\275Z\303\017>\212\361(=\353\212c\275\3779\035>\324\216\236\274\322\377\310=;\270\232\275\344\213\353\275\370Ha\275\333\010q=\246\360&=\003\206\'>@\306\221=\205\362\352<f\371\030:XJ\244\275\210\225\021\2764\316,\2767\3423\275\004C\003>e\310\245=]\236\345\274\212\303\364\275F7\336=2\314^=\267\310]>>\240\001\276+\024\375<\312=\007\276\312\226\007\276\201\2010>\036\301G\275\367d\252\275\006wa=\020kG\275\034q\003\276h\355\036=\010d\225<<&\263\275\3371\215\275\253\313b\275>{.=\210\223k\275A\353O=\032$\352;\253\340\177\276\341\250\r\276\323&\345\274\321QC\2768\230\222<j\343\002\273;\364\326=\275t\214\275^\306\200\274$\360\263=\034\301\346\275\227$+\274j\341;<\265\241\235=\350\025\014\276E\275G=\361r\032>J\220\022>\204x\216:\301\373\365=]7\325=\1779\307<Dm\244<^\247\337=C?{=v\276\005<\340/\216<\357\312D\275\210\264\034\274\020\255\304\275\323K\311\275\310\203\333\275\037w\353=\204\361,\276\215\035\263\273\t<i\275\t}\321=w\202\302=\312\246\017>\235>_\275\375\334\276\275\202\372u=\300|\302<;rW=\262k\257\275?4T\2757\007\322=\330V\'\275;\312\237\275\007s>\274\024\2445\275\371\330\236=\305\256\334\273A|K\276!\301|<<\002\223\274>\227\301;\351\224\270=\372\266\020\275@\272\022\276f\325i;\177l*=\223\027<\275[\000\217=\345\361z\275\004\234\247\275\350\300\024\276\206\203T>~\313\253\275\332\334<>\027\322\313\274%\360\274\275PE\340\275\323\312+=\332\344L<\365\r\250\275c}\n=ve\364\274&\262\305=\267\363\224\275\306%D=m\004Q\275\204;\347=$\036\214=P\275\375\273ad\303\2752\022\001\276Hq >\227\232\004\276\211\327a=\274T\354\274\301\245K\275k]\013\276w\221\222<\000\010\224\275`\311\312\275\374TU;\004\026\207<\230c\364\275\n\222\245\275t\2409\276\245t\005\276P\005@\276\216\252\004>WBR\275\021\336E\276&\366&=-\252\271\273T\274\273\273\300\004\034=\375%^<x\275\210=\302\263\250\275QW\"\275Q)\027\276\020D\030\276B\004\222\274\326\352\246\2759\377\210=\314W\0068\"\245-\275<}o=\302,\"\275\022\272:=e\001f\275\031\223\253=\301I\277\274\214o\210\273\347\233\253\272Gm\334\275\242\232\254<\350\273\017>\345\262\'=E\353\370\274\212OA=\206\204\372\275\256\273>>\231V<\276\003\216.\273\327GJ>\356z4\276\370\020D>mE\266=\032\r\n=.\013\205<\231Y*>N\177H\275\303b\036<F\222\273=D\003\230\275\343\361]\276\000{\243=\031l\360<\200P5>\350\025@\276^(<\275\003Z\260\275[8\010\276\363\325f=\2610?>Y\217)\276\366\t\374<~\243\037>\226\022\334\275\316HT\275\224!\211=\204K\264=\340\306\037=#\251\203\275rY\367<\201\013\333\275Z\036\005;\323\231\275=\351e\275<\212\214\346=Y\265\007\276\024\3533\275\007\324\032\276#\002\013\275\022\343\001\276\251\272\032\276,\225\n\276k\266\021\276\244\233\255\275^\031\n\2763Z\001=\320\177\205\276\262\3027>\215\033\001\275\271;%\275kl\017<\363\376\256=\334\177\204\276R\211\001<\346:\275\274\352\275\n\276\227\014\301=5\234\321\275\033 W<\371q@\275\257\005*\276\271R\262\276\237\263\270\274I\261\245\275\270\222\001=\325\003\224\273\003\017\214<\371I\334;\234\362\357\275*Q\273=\214\242}\276$\037\026\276\304\025t=\315X\246<\217\377\001<\232J\245\275~b\006=\201 Y>\346\347 =/\325\023>s\374\213\275\201X\310=?\177[=\374\204r\274\321\222\">i\027\350=7\362)=\260\236g\275At\211<\204\3155\275\255r\004>\273!\010\276\024\210\004>G\233/\276k\202\022\276\315\321.\275\255\374\327\274\030@Q<\203\t\344\275)?\037\275V\034\242\275\200\340\\\274\312\034\333;wF\022\275\251\010\033\275\027p\212\275\236O\235\2750\245\"\275\003\277\215=p\350\033\274\264<,\275\027i\331\275\320\323\367<\304tH\275\201\347\347\274rZ\252\275\356\352\224\275\351\267\364<8b\222=\354\200\020\276\002]\322=\331\353\002\276\224\372\255=*\0046\274i1\237\273Y\360\221\272&/\263=\352\330\360\274\'\n\'>\004\367\312=~\334\312\275\370\005\204\275\010\210\277=\261\345\001>\326\344\247\274K\034\007>\370G\314\2754\225\241;]+\032>\270\037\'\274\240\312\270;\206U0\275\354\023\215=\3123\025\276X\021m>6O\204<HY^<\214\355\271=\256\320)\274\350\202\252=\245\032\023>EA`<\334a\">\305\035\353<\034\177\217=\322\276\321=\266\036\020>n\372\265=\226+z>a\246,>Kf\033>\217\001\267\274A\366\314\2752\3053\274#\317P>\007\277=<YLM>\251\006<>\021tr\275 \371\016\275\004\201V\276\234S\002>pk\233=\257L\304\275\036o8=\365\345\t>\222\3369>w\021\360=\035z2<\301\223L\276\332\037\217\276\361\020f=_\354{>\375\310\003\275d\230\020>\346\325t>\034\303\016>/\313X=\256>\312=\321d/>(\373\013\276\255\340\242=\304\204\016=}\237 \275[O\344=\336\224>>8\344\024>-\264\243=RdW\276<\016A>\237\374\347\275E\310+\276\'\253\377=!\244\"=q\340\343\274FTD>\034g\277\275\006cw\275\366g\004\276\244\346\217\275\222\226}\274\200\213\217\2754\314M\275\0138\375;B\262/>\351\300\306\275k\327.\276\262\355\033\276\373E\177<\212r\277\275\335\253\335\273:\272\342<\300\300\342=/\363\\\275\237\237\213=nVG=\004\253\240=\357\221\010\276\305j\031<\035\003B>\327\342\334\275>\221]\273:\032\024\274\253\213\353\275\340\250\024>\244\324\341\272\245\371\347\274\351\233\244\275\301\227m\276\237h9\276\2738\000\2769U&\276\344\276#\275/(\260\275\314\345\353\275,\247\271=\270\316\326=\244R\357=\276\221};#\251\301\274\037\344\000\276\235\036M\275\264\210\204\275G\353`\276\025\364w\275\262\001>\276a\303s\275\014\206\276=\027Tr<]\337\211\275LK\204\275]\361<<8X\267\275\324\t\t\274b&A\274\206\360*\276\225lE=\274D\026=\325\203\276;\377\302r=\206\\*>\355\333\206=|*\032=\226~\352=\372KL\2753`\313=\264\274o\275\220\273<\276\264\210?\275\013VK=<(\235\275)\237\202\274\273\310\004\273\363\332\007>7\337\306<5fp\276\367\354\250<\256\275V=f\354\323\273\205\030!=K?\236=\027\3408\276\265t\013<(\334\303<\020\270\245\275m3\330=\245*\272\275z\205\301\274\250q\301\274\276\236\016=J\302\245\275.\350\000>\\\235\240\275U\225\250=\02045>\3302\270\274\270 \226;Xs\013\276\361u\345\275^\3633\276\330\013\"\276;\\M>R\307\331\275YH\004>~[y>\3467H=\350B\270=\022\'0>\t\333\261\275\323\262J<\244;\325\275\022\254\240\275~n\376=^.\311=\030\367\360\275\260\320\025>\241\024\034\276\247t\315\275\\1\225=\rF\217\275\365\363)=U\347(\276%y\311=L\323*=\177]\265\274\217\t\231\275Jh\'\276\350\377/\276T\245\027=\033K\023>\302\211T\2766FE\275\033\201\023>UI\303</g\024\276\245\355\260\274\276\260\223\275m\3128\273\370\243\272\275/\2171>%0\325<\371\004~\275\307]Y>.\r3\276x\021\365=\177\r\221\275Gw1=\277k\265\274\213\223E\276\034zX\275\376\224\274\275m\247\314\275\023\220\002\274]\217\007\276Q6\363\274\272\035\213=\340\220Z\276?\375\031\2768*\256\275\312:[\276\023\020@\276Kvr\276\032\253\354\275\230\225+>U\201!\276\330\233\205=[\177\361\275w<\200\275\323\210\023\276zw\313\275\021G\236=s\326\241\275n[\177=\026C\206\273G\272\274\2751f\322=\374x\007>\346\032}\275\252\2605\275\004\355\232\275\240\342s\276@v\203=;\'D=%\031\317\275\354\323 >\301u`\275\321\214c\275T\002\024\276n~\321=\371\243\370;\363\'\321\275\317\301\367=\204#\243=\212\371\007>OQ\365=\020rM=\010\3331=\265#W\275s\372\260\273\3662\357;H\346\232<Rx[\275\014\362U=*\357-\276\241uY=\306\033\242=\001\"\324\275\373\027\024=\362=b\275\233\277\n\275\353\204\356\274G\222\223\275*\311M>\005\363\200=\360\266\211\274\356\233\345=M\002\206\275j\230\313<r= >\014GL>\211\214\036>\352\037\005>\331\261p=)\233\306\273](I=\261A\322\275\014Fw\273r\267\272\275;\031\213=|O\250<\236\001K\275x\321\337=Z\344-\275\343\004f\275,\203:<9\303\234=\261\360[<+\2112>0q\211\274^\231\307=\014\246X>]@\367\274\306c <\010\3569\276\362\010\252\274\263\217\257=/\337\373\274\222\371\232<\255\2414\274\230\3400>\342\321\206<W;\303\275\372?\205\275_i=\276\351\251\005\276U\315\014\276s\362\034\276\322\226\'<\345H\034>\360\234\023\276\305\'\034>^>\303\275\035!\032\274\222o\036=\222}\265\274!\370[\276h\376*\275\345\024\262=X^\017\276\274\322\"\275\215q\361\275P\227\035\275\302\262*>W\336\320=\313\232\351<\2115\242\275B\233\256\2759Y\030\276\253t\'=\233\026Y\275\004\304H\275N\237\321=\255\021X=\266a\240=%\212\004\275\263WM=\305\222C\2725\003\277\275\345z\034\275_\346\033\276\320\377S\275\360\006\350<\243\303\311\2747Z\245\274og*>\243\'\332=80\342\274`\303\3069\306\303\375\274\210\311\024\275\253\307\301\274\357\210I\276q\306\277\275\356\205\345=\257\006\335\273\"T3;\317\210t\275\243\277\002\274@\267d\276n6\002>\315\224\004>}\033\230=\264\320I\275W\314\215\275\031\326\030\275gS\346=\341\357\\=z3\206\275\2252\243<\035\305\016\274`x\037\275\266U\252\275\013K\020=\314\346\262=\274\021:>\001\237\260\274h^\227<U\247\026\275\321\0306\274\245\270j\274<$\322\274\021\262z\275\371\315\361\275\230\035\272=V\327\324\275\365\224D\2756P\211\272J:\376<\006!\215=\244P[\273\213\270\252\274\330r\252<\233\307\355<\201b\271\275B?b\276.\210\311\274(\032\243\275\\\347\270\275kG\230<\261[t\275\213\354\336=j3O>\003E7=_\331\215\274_\305\007=sC\226;\202\255*=C\304\375\2752K\270<5\013\355<$\203+=n\372\033\276\326\356N=U\210\350\275\330\244P=\354kE\273\\\341\277\275A\233O\274`\231\004=q:w=\361f\t<r\200m=\3313\270=\034\376\030=\270\215\214\275s\246\3529/\237\325=*\331\226=v\364\016\274x\215\275=*0\334=\337\021\300\275\214\310\256\275\031$\214\275|G\203\275\320\tn\275^\272\004<\350W\320\275\214G\020\276\332\034G\274Da\264\275\016\223\n=\254&\255\275]\261\003\275\005\236\001>\2011.\275S\222\036\275\233\032\250\273\177\337\"\276p\361\201\273\032\320o9]=g=\351\347\301=,R\006>\326q\030=n!\r\276\273\315\355\275\304u7\276\2577\226\275\003\361\262=\247\031\206\274S}\200>r\354q==\"\350=,\026\222\275\210\203\362<\355\025\331\274\303\213\004\276;v\257\275U\356\031\276\353\\\237\275\276V\301=v)3=\376\216\207\274n9e=L\2577\274\265\t\220<\335\373\001\276\350o\005=\027\013\274\275\177=\330\275(`\361\275j\245\t>)\236\224=>\371\351\275\317\035\342=\202\000\211\275i\366\320=\204\003\202;\353\252\032>1\201\234\275h\316(=K\002\226\275\201\312T<\021\220y\275\232\026&\276\204\222\215\275pC\027\276\261<~\275\244&\302\275\224m =\314\354\267\274:\223_\275CK\006=\367\302\334\275\347D&\276\315\254\220\2758\016?=j\227\024=\016\273\315\273\243\320\000=3\334\361<\227c\371<\367\3301=\216d\202=\273<o\275m[\221\275%\2112>\010\2321\276\325\252V>\3070\200\275s\232\235\275w(\000\276\322\224\'\275\367\351!\276\255&N\276\252\226\230\2766\275\013>\354 \256\272\373\270\"\274\310\302\033\276:J\037\276W\035+\276\3653f\275\333\301A=\337\201\371\273\356\227\n>\017M\203\275\343\333\320;\240\037\000\276X\256W\275N\276\362\275\270\257\276\275\251t\342=\027\036\264\275\322L#>\231\336<\275\023\014\256=\241\025\247<jtD>\035\022\326\275\313\337\030\274Ny3>\016\016:\276\355\271\330\275^\376\377\275`\346*<lI\202\276\365$\226\275\3402\337=\334\\\264=~3\337\275\325\001*=\350+\300\275r\251\256\275\377\357\002\275\000\232)=\030\3676\276\003\241\312\275;qS\275R\263\201\275\331\267\270\274\231\314l<G\270\310=n\034\n>p\374\006\273S\250\036>\034\326\245<4\027\344\274\322\322\267<\256>\374=\213\201+=\313\324\260\275]E\\<V\271\276\275\354\t\307\274%\315:\276)A\247\275\325\2553>\243>\213\274\221|\367<X\263\375=\256v\341\275\307.\245=\321\010\320\273g\223\001\276\220\355\024\273t\365M=\237\356\010>\207\223\221=fe\336\274\372g\001=$\200c=\0078\323\275\245\207\023\275!\n\232\276\274G!=\276\023\317\275\377z\001\276\005S\360<\346<\031>h\310\237\275\266\030\315\274\351\004t=\016%\376\274!\247f\275\275\336\270=I\256z\275\305\364\250\275\346\323v\274|\312\264\275!\003C=kb9>\335\222/\276\240\034\357\274\235?\315=\226I0>\021\271Q=\336\326\336=!\265\t;\331\030\355\275\215\363\222=~K\021>\024u\363\274\204\367b=\373\307\'\276\303+$=\374\253\r>\3152]\275?`I\275K,^=\030\3119\275\301j\363=\006Oa\275cJ\030\274\214_\230=\221\254r\276\215K\310<\224\"\016\275\362g\341\275\205\372\351<\304\342\274\275\356\r\256\275\217^\351=3\013%=\343\257\206<\354\244V\276\352$\036>\275FR\275J\352\264\275\234N\030=\351\204=>\253\326]\276\373Kl\275$~A=\226\022\331=)\265\340;\274\204{\273r1\254\275\257\353\220\276\\\302B\276\006M\374=\320\303*=7*K;\n\277\232<a}\000\275i%\000\275DG@<\275T\257\275\326z\247=\0329\020=6\302\372\274\r0\"\276\365K\361<\273\222\253\272{\266s>\237\306\311\275\355\231\036\275\n{(\276dZ\261\274\240.\300\275h+:8e-6\273\025\200\312<\357\270{>\236Q\025>\322\210\207=Y\321\013\2762]W=\270\001_\273v\273\210\275\313\344\232>*L\241=afM\276\345&\006\276jWa=\237\216\206=\275P\312\275\177h\331\275\214\025\r=A\306\240\276\357\262\246=\022!T=\2072\312\275\233\221+\273\036)\236=\250\234\232\274\200\272\366<\326\345c\276\027\375\313\275\205\261\216\275W\265\n=\236\265\304=3\255\233\275\366\261\332\272\rh\304\275\335\203\024\2767\241\037>\2117k\275\352\361\210\275\267f\n\276\203\004k\275\3268\374\275\370\333\t\277\236J\001\276\332\377\277\274\3736e\273\323\326\030<\343\037u>Vk\377=<`\325\275\007\250z=\317\226\005\275\'W~\275\217F[=\336\n7\276\243\213\022>\250\253\373=\033\251\245<&\243\204\273\253\000\000;y\273\217\273\317\\\200<\241\214\277;\200\217\342=k\256H=\224\254\364<QB\250;\265\322@=g\022B\275\372\306\255\275\226/h=\021\327d\275D-\236\275\233r\037=\222`\033\276:\nT=\346X\364=\363\343\026\276\236L\231=\354\206\203\276b9\361\275\355eD=\'zZ\274\030\350\250=\221t\026>\204\000:=O\347\315\275Jg\230\276\366\3659\275\224\365E\274\213\304\031\273\3161\326=\366v\217<\341\\s\274H\255\266=\340\364\227<\335\336\016\275\373\262\306\275\341\236\226\275#\220\346\275\267{O\275\016 \335;\320+\316=m\000\350\273\236^8=ZL\245=\301v\327>\025\010\002\275L=\331\275\343\315\343=~}\366\275\014\275h\276\2662\216=\363(7\275\237w\206\273/\356\030>\325%\225=\242>5\274\204U\315\275\021\014\225=!\361\310\275\342\327\365=\022\250]>\366\363}\275m\260\033=^\265\034>r\301\353<\n\341\300\27496\014;\222\214\025\276\033\365Y=\371\227\t=|T\323=Z\373\373\273\024\006\217\275\r\202\302\275C\264\n<\206\275\343\275wSi\275\322\366y\276l\315\227=a\2022\275\357\316\n\276\325S\201<\273\251\201\275\2324\024=u\347r\275V\303!\276-\213\002\276\t\321Y=\034\036\213<>\277\014\275\226\344\031\275\344\370\322\275]\253E>\366G]\275\001 ==L6\331\275\006\\n\275\230\276\033\276\257\341\006\276\245\022\264=\303\257\255=\366\367\276\275\323\000>>\311\204W=\357\033\271\275\300P\035>\230`\000\276\275!\000>2\001\222<)]\'\276\247\226e\275\367\274\202\275@\347\\\274\376\030\360=\3130\034\276\331\203G\276\300\306\262\274\031\324\300\275\370\003\226=\030\347K<\352\336*\275\371\357\202=\313\261\221\275U\242e\276\300\340*\275\367\246e\274j\236\224<\225b\210<\005\306;\275\330=\260;\362T8=Bw\274:\305K\277\273\202G-=/\000\346=\271\030{\274\355\224\321\275\"K\246=\301\306n=Z7\377\275L(\200\275W\314s=\331\311\315\275\033\025\260=a\240\377<p\013\n\276\027\225\221=~\253R=\374\307\t\275G\313y\276\273\325\234\275\365\216c\276\252(\255\274\223\321\002\276\363\356\330\274\372\031\367=\264\260;\272\241\233\210\275\214\n9\276\260\223\365=\272\304\313\275\224\027\310=\3411\t\276q?X\274\325\"\336\275\367>\206\275\3256\254\275c\262=>C\031w>\3239\332=\024`\324<~l\312\274>\223\000\274\350~\340\274\267\300\305\274\023\353.=Ft\307\275\357Z\n\276:\241\204=\341\357w=,\003\377=\203\212\366\274\355x\231\275\220\331\250=*\0137\275\0046$\276\307fM>\361x\274<\346\243\346=\264\267\246<J\263\007\275e\033\354\272\010S\370\275\341\227\336\275Ic1\276\216l\032\276\302\277\206<\260\256\n:\244\002\373\275\021\312\002>u\222\313=N9x\276\3559\243\275\274,\016\276*\003\325=\005TC\274Z\202\324\275+\331F\275ZA\014\276^S\340;\227`\007\276`\025\243\275\225\362[=[\336(\276E\334\257\274\003v\032\275!\343\021\276\374\353q=pKG\275\177|\341\275\363\371Z=\230\302\324\275\\\305\343<\247tL\276\243t\n\276%\202\003\276\274t\227<A\323\205=Rp\302=g\3126\275\327\212~\275\342\334 \275\34242\276\275\375\003\276F\262\206=C\376\333\275\313\217\000=\222\022I\276\222\334\211\276$\013:\276\340\177(\276\226#\232=\203\351\233=h]e<\230\231}=\033k\020=R\037\214\275O\331\220\275\006A\301\275\355f\032\274n\320\274\274T\217\231\275\207-!\276\352\\/<\201\323\305=\301o+=\262ho=\344\\\206<\030\356s\275r{\201\276\365\316\357=\006\204E=0\373\n\276\004\350\017\275=\373J\276zP\311=c\3044\276\363\255\301:\027w\304\275\027\n\223=]\tA\276\n\014\037=/\374\013;\347\371\300=\347(;\275\265\205\256\274\363\274\303<\267\303a=\277\335\020<f\257\367=\020\0357\276\261\251\210=\002\303\017\276\324\352?\276\312t\302\275B\224>\276\210\007v<\311!Q\276\267\021\017\276\031\013O\276}\333Q=\356\010@\276c\367-\275\324\200\000\276be\214\276\377P\021>\227\034\233\275\333\'\340\275\016h^<z\247\026\276\031\341\004\276Q\264\300\272[\321\336\273`\332\001\276\001\232f\275\372\267\020\275\262\2275<!\341&>2\034\235\275\244\034\204\275D\027\374=\037%\256\275\366~\314\275[\315\206\274\257\235E\275\r5\220<\370\014\034=\2747\311=\321\361\303=\2732\001\276H\357\026>\337m<\276\251]\216\275\276\232U<U\307\222\275$l\207>\024\330\270\275\327\202\'=\266\314_\276+\364\235\274\261j\256=\325\345\232\273\347`\002\274(\010E\276\362\370\247\275\225\364o=\233\315\314<c\245v>\327\014k=z?\317=3b7>$f\312\274{@\006\276m{\342\275\227\217V\274\0009f\276\003S9\275+S\365=tj\013=\214\007\223\276\356nx\275w\306\234\275\366j\262: \345q\275\325\205\267\275\244\003D\275<p\n>\260\3674\275\205\244r\276\231\212F\276^+\323\2751\250\355:_j\260<\370CF\276a\227\230\276\031\324\231\275\324\036\210\272\234|\254\275\036X\022=4\'\330\275e-#\276\333\347\326\274N7\034>\310)-\276zf\031>\024\036\364<\236\023\021\276a\034\244\275{\023\277\275\302\205\003>x\r\321\275J\007\232=\313Y\204\275v\024\234\275\2404\027\276\027\370\332=r2,\275u\002\'\274\006\035\221=\034\311\006\275\244u/\275\245\035\177\2759\250\247<\375\357\324\275\310\321\254=\361\276->\230\234k=\\\225\023=\322u.\276E{F>\r)k=-|\014<P\365$\275y\0274<\353\316\363\275\244\205\365\274B~\367:\010i\321\275\236\346\216\275\367\331\302\275\223%\347\273\307\273@\275%\361(=)9\n=\370\026\271=\336\3572\276f\277+;\263\235\'\275i\237\035\274\355R\373=\255\276\026>:i(=\352\374\241=\2523\371<\203\277\235<\035\247\004\274I\034*>\200c\373:\217\366\r\276F)\030\276\352\274\037\276;\\\373\275\341Z\005\275\233\327b\275KY\"=?C\214\275\267p\223\274\205\373\014=yqW>|9&>d\250\374<\311\232\332<\224Y+\275\010\na>\303\311\327\275B\271\301=53\215\275\212\367?\276Y\362V\276\355\217\n\275\244\357!\276\220d\317\275B\226\366\275\205\350\340=g\356\257\275\027\313\240\276Z\315\201\275\026\205B\276\241T\002\276\352<\311=\241\226\311\275l\037\230\274\334\202\\\275\244\201\255=\222\t\037\276\007w\215\275\312\003c\276\202B\270=A\037\347\274\016\332\224\275\037h\361;\274\030\215<\373\246\204=\343\372\014\276\037Q\374;\'\257\253=\320\212o=:Q\347\276\333V\266\275\307},\276\tX\215\276\026s\221\276\207\361\255\275\305|\003\276\320\002\270=\237V\340\275F}\037\276\335:\306\274\0044y\276\250\362\"\276]W\315=\375\212j\275;\220\345\276\364I\243\273c\245&\276\022\357]\276!hC\276Eg\014\275:\013\211\274\271Z\222\274)\237\032>\024!\221\276h\374W\274\265\006\325<\025\2610\276\311p\302;#P\240\274\342\255/\275\226\230\207=iu\231\273\311\n\364\274\354Bw\275r\017\210\275\343|S=\0103\206\275Mh\330<IW\334\275V\220\227>\214>\003\276_\253\005>/\335\272\275\365R6\275\263\323C<\235\333\007\275\227^4\2751Q}\275A\234\207\276\326\\H=\356\262\362\273\3703#>qJ\357\275\031\236k=.\034\335\275\315\310\255\273\364\013\357=ju\304=\272t\010\276\271\335\312\273\215#e=%%z\274\370\211O\275A\315\252\274\256Gj\275\367\344\305\275\270H\301\275\367[>\276H\014{\272\030\327x>3\241\311=\016\022\206=\307\242\205\275l\010\257\275\355\216\306=W}\374=\376\221\003\275\367\265\022=q\n3<\211\324\346\275\017i\326=\356\300\251\274\234\277\032\276\261g\245=\033\215\320\274\334\342\236\275\330%\211\275\022`\241\275Q\305\216\274\346\256\233\275W\375y=*\346\263=a\364\022\276\225~\226=\203\360\2609\375\017\306<\264\220\027\275AJ\363\274\031MV\274Om\222\275\306H\013\275\346\2651\276s\326t\275O\031\252=O,E\275\260<\256\275\033\274\n\276\254g\336;B\346*>\214m\302\275\323#C\276\023)\220\274r\023\203\275\t\177j\273s\305\036\274j\3025>\250P\254=fr\036\276\010\003\235\275.\3420=3\322\252=\346N\245\275\273Dp\275T\326\025\276\315\252\017\276f(\231\275\373\201w\275\315I\037\276\213\366\333\274!\017s\276\225T\374\275\307I\212=\371\0041\276\252J\024<\177\006\374\275\273}\306\275\013\365\210\275#\327\203\274\371_a\275n[\203=\311\333\240\275qk\311\275\rbo\275\365\260\275;\2131P=`\236\001\276\215\014\'\276\336\221@\275\326\024\037\276\226\361\354=4\255\315\274\246\031\337\275\203\014\204\275\313\246\014=b\201\353\273t\200\t\276,G\316=\262\336\306;\026\277\215\275\033\n\'=!\223\241=\263g\001\276\332\324\326=\024\226\007\274\234<\037>\233\370\203=\366\\C\275\373\327\321\275:B+\275\253\222\272=\233\301\245=\334\324\320\275\013\006g=\343\251\215\274\027\030\\\275\032Lq>\010\340\223\275A\\\005\276\027G%>D*U=\250:\014\276\274O.\275{t\003\276\255\376\356\275pD,>\361P\317\275\243\365\207=\200\327A\276P\371\230\275K\0200>d\0047\276\033\357x\276\314W\033\276\210\375*\275wgK\275R\345\014\276u\177\033\276\300C\035\276Z\341\"\276V\3446\275?\0309\275\365\320o\273\340s\017\275\016*\014>\307=\262\275\244w\202\276\rGy\276\356\344\220\275\301\360\035>\303jI=\305lt\275!\031\260\275\323}\024\275\360`>>K\2773=\001\365\010\276#:)>aL\006=\350\357\016\276U\331\033\275wB!=\272\301;>\222\364\253=\226\353;=\200J$=\340io\274\372\210\337;\225\322\334\275 \217\227\275\210@\314\274x\214!<\216\363h\276\356\207V\275i\300\300=B\3743\275\3161\362=\323\210\342<<A6\275+$\223=\337\210.=\2516\356=\033\274\002\275M\025\010>0\272\234=\367\351\266=\023g1>\246\374\256=\005\307\266\275(,Y>\310\311\013>\254\004\232=\310\307\277\275xc\211\275N\220\027\276\301,1>\342\255\212\276\315:\020=\350\007\202\275\224\276\244\274\313\255\020\273U\361\205\276WbF>\025S\212\275\316U\341\275\311tx=\276\007\265\274\323\001\236=\010\314\345=s\360\245\275\245O\331\274\345\027\027\276\023\005\270=\361z\327=\320\030\250\275\275\304K=\303I\361=\364\207+\276\333\356:\275p\210\274\274\"\306S\275&\304\317\275f_\317\275\223\360\014>\217\3562\274x\372\270<\363\240\235=OS\005\274z\206I<\344T%>\265/\312=!#\033=\340\001\002>N,g=\244\235\"\276\336\304[\275\234\340\206=\205\242[\274\266oR=\020\033\241=(\227\004\274?!\r>C\347j=^U\032=2\215\222\273\352?\246=\032\036\025=\344\003*:\t\376\237\273\"\310\024\275\037\366]\275\014p\324\274\021a\016=\201\2230>.P\203=b\303\306\275\021-n\276\314\262\337=\252N\244=\37673\274\360\240\357\275\366J&=\300h\230=a\323\314<\264t<>\345\260\351\275\344\016\024>\327\265\367\275\016\307w\275%x\371\274\177)T=\343HA<=\'\206=\372\300\014>[\274\017\274\242\323j=\247|\223\275m\010\210=\230\203Y\275X\341v=jR\314=\\A\246=\361t\261=\330\323#=x\210)>\201I\355\274\373\323\002>h\317\301<\301\222\274\275\331\354\353=\352)\234=\330\220N>Iq_=\316I\247\275YD\232<\321\352\014\275\205\302\334\274\267\304\225\275\356\346\200\275=o\235=\227}k=\320\243\300\275p\342\227=|\2062\276DG/>\256\371\320\275\035C\n\276U\256\\=\024\014\200<\323]\315\274\343\335\000>\014\312\263=\305\022r=N\311\261=\276\177\337=C\254\325<\314K\014\276\\p\226\275\267j\330=\247\237\376\274\245\333A\276l\352\010>\035\223^=cj\201\275\251\311\346\275\307\212\022\276\306\315\212<\034\266\017\276\027\027\020\276\331Z\250\275}+\'\2748a\231\2730C\215=u\265\005\276\035\360s\275c\347\354=S\377\010\2747PO\274\310\2053<\264\234(>\3610\211\274\332|\366<\036g\270=\272|\254\274y\254\003>\252\2209\276\2333\231\2742\037\234=\r\354\007\275a9\262\275\312\307\213\275\341\325\202\274p\366,\276z\272\004>\355\336\304;l]:=J>\320<.+\316\275\342k-<\246\200\005\275\347%\301=\367R\220\275ZG\300=\211F\210\275Z\336\003\276\313N\343=rt\234<\216(\377\2748\347\214<c\312\366<\247\232b\275\370{\\;\340\371\006\276\005\205\017=\206\233\242<\367\343\352\275\310}5\275\010\342\224\274\344\020\217\275\251\246\211\275\317\263\256=-\264\336=\207\226\327\275\033%C>z% \276Kn\016>\324>\347\275\204|\371;\004\330\321=\017\",=Q\366\312\275\315\321\001=Wa\233\273\233\234\307=\030M?=\375{\356\275\2044\232\275\227\213\032=\231\256!>\276#\314\274w\302%>\370\274\n\275\255~\200= \222\357=Y\241\305\275\2175\000=\217)\326\27560\347;\224%e\274\350\210\332\275g\206\333\273=\325\201=\375\370A\275j\306\2028c\2246>\332\035\205= H[\275+~\r\273\214\230\370\275\007p>>F\246\007>x\315&\275Yq\346=\201\030\">\303BX=\316\266\310\275h>\307=\230oN=er\013\276\330\242\376=KR\257=\251\035Z:\003\007\314\275\"$F\275v\352p\2764\361f\276\306V,>\253Lx\274+\376u\274\215\037B=\325h\203=\376\267\016\275\354>\n>\361J\235\274gc!\276\222\320L=\325H\311\275l\230\007=\232{c\276\302Q\007\276K}\304\275\244\263{\276@\027\001\276}\'\204\274\325\r\270=\365\353\321\275\312m\246\275\376\250\311\274\267Y\t\272\342\346\362\275\355\210\324=\244=\027\276z\203\036\275_\345d\275\370\2540>\004W\224=iz\026\275\257A\351=h\273\034\275\302\305\020>\331\371\235=\010\266\342\275\240\212\277\274\262\236\315<\030}\033>MI/>\2603\255=\243\n\302=\316>\317\275\244\354~=|\214{\275Q\233\225=ym\006>S\207s>\016\'\035<\376=\316\275\303\334\270\273^=\212;\340\236\257\275\330(\356=\366TU=\301\017\205=YF\347=\325\224\205<\\R\207\275\006\002\344\272\021\272=\275]?O\273\232\013e\275\215\335$\276\236\236\002\276$t\254\275\375\2338=\n\356\350=\224\244\332=g\242G\276\346\t\007=\026<n=SB\231\274\036\r,<\216\006g=\020vd=\301\240\020=\023(c=\246\266\035\274\253b\255=\000\221d6\374\201~\275\t\204i\275\021\030\r\276\367\004F\275#;\352\275\342\226\352<\304\331\322=[jf\275\023K\n>\332\177\245\275\346\014\206=\035\227\370=%J\300\275\321\375=\275\375\026\312=\274#(\275\370\201\025\276&\332 =\374\334\221\2746\2729>O\317\000>E/\265\274]\252\205<\364\200\312<x\213\213=\37797>\\\207\304\275u\201\003=\214\362\233\275O\331=>:\331q\275pw\323\274GK\256=\3255\010>w \275=m;\265=\372\345\247\275\262{\325\275\370\272a\276\013#\352\275F\254\336\2745M\026\276q\264\231\273\030\264\266\2754\302\211=\021\235(\276\362>\034\276\321J\032=\"v\363=IvJ>&\332==\002\022j;x\231\364=\312\317\202\274*\322e\275\007J\236\275\2213r= \221\314\275k\263N=\244\035\253\273X\201\364=\315\320\315<\021\277\335=\357\204\224\276\327\306F<\0268o=^J\317\274\034\230B\274f\231\271\275\2546\216\275\02619=\377\013\336=e\376\257\273\023\025\233=5[\303\274a\024\346=B-|\276/m\212\275\023\037N\273\026\253\005\276\002\213\361\275\310\350\367=\2016:\276*\302&>\220\214\372<\331\006\244<w\305\217=\231\3314\276!\3273\275\224m\001\275\310\260\330<\367\245\261\275\243\344\317\275\361\026\354<iK\t>3\343\013>&H%\276b\321)\275\315\205\025=\373\301\210=\276\303\347\275\334\\\333\275E\333-<\272\317\025\276\276\007\224=$\310\202\275`\213\034\275\2626!>\357\351\237<\337\277\017\276/VT\276\275\017M>\027\000\332;C\033Z=\260\3022>Y\353\001>\355f\337<*\252l=\367t2\274#\"\001>\355\237\217\272P\274\036>\210\277\032>\347\2747=\3243\352=\rmh\275~y\200<\203y>\276bW\361\275\220\203\350:o\376\371;.{\317=vB\333\273\271\tp>\251\016\005>E\312:\276\251w\037>=1\200\274KY\247\275(g[=\253\212\266\274\374\261\316<Z\266u\276\225m\230<\217\303\362=it\200\275\233\325\201;\250\263\r>\375\237W\275\334\355B=-f\024=\337l\236\275Vm\231=\272MT=T>\205\275Z\361&\276\3068\304=\t\365!=\325\022\274\274\2074 \275t%|\274\311\306\206=\253$\355=BI\254;c+\316\275\"w\204=ykR\275\0174\000\276\370\363\336\275F1\250\275~\250\324\274(\0005>h|\360<{]m=\342=\233\273\267F\206<\346\216\035>\212\323\226=e2\020\275\276Q\264\274_\264\212=\333\n\303\275\263\031\352\275%\204.>\206 \352\274\316G(\275\'O\023>\251U\237\275>j\003=\325_V>\332~0\275t\221\216=\251\020I\275\351J\351\274\332\377)\274+\240\014\276\375*:\276\277FX>&\032\233\275\312{\272=\353=\270:)\370<>\001 \220\275\207\227\000=\247\000\020>\325\230;=\333\335\346=E4\000>\203\351\035\275\225Q(=\210\227\273<\177i\255\275\372\014\002\275\355\264\024\276\257\025\245=\334\205\215\273\365#1=r\322\002\275~\2229=\276\233\305=[n\206=\'\003[=h\325\351\272\252lm\273\005\326\023>\032\274\265<\334o\222=v\023k<\021\370\242=\301\334\257<gQ\255<0\036o\274R\3140>\203\363\322\274s\361\210=\314\342\316\274\334iB\275\242\232\017\275\316\026\256\275\203\250?>R\210\330=\355\rS>\314\207\376=A;\263=\376\215\203=\232 \316=\t1*\275\016*x\273\327Vo<\236%\203<!\0318>\276v\030\276!\001\333=}\314\"=\346\372\234\275\006\262\032\276\331?\271\275\227\245\310<Q@\356=\277+\020\275\rV\t\276\001\271\301\275\236~\320\275\003VU=E\231\373=J9\014>\371\333\311=-\230s=\246\036\361;k\010\204\274\265uN>~\321\354=\270(&>6Y#=\301\215\242=9\327H=i<-=lN\032>\226\261\355\274\375p\240\273`\2559=O\323\352< \354\271=\226\362\277\274a\346\022\275\326}\177=D0q>V\254\207\275B\205\223=W\331\217\275\252~F\275\010\300P=9 V;\231\264e=\352\352\024=!\002\320=M<\236\275\355\250N\275i\001\236=\367\037I\276\366RJ\275\010\303\343\275\334\256K>\3030\005>\237\003J\275_i\226\274\355\026\271\273\240\342\020>{\361\236=\017D\234\275$3\320=(*\266\275\263\006\326=\032\2531\275\340\356\270\274\331H>>Z\253\014>\010v\200\275Q\315v\274\334;z\276\306$\010\276\242S\025;\305x\273\275\005\201\355\275\274J\274\275p|\347=\213\233\252<%Y+\276\001:\207\273\016\250\213<\347\007\214\275\014\267\312\275\023\247\235<N\210\245<\032\251g\275p\016\274;\250\255\363\273M\322\316\272\331\002D>\025O:>`1\036\276\314\240\233=\355ha= \250$\276\254\346A\275\344\215R>\241\377P=\247\347S>!%\341=\202\327\230\274U\007\222<c\034\206\275\254\313\217\275\3700\t>\371g\363=J}8\275\003\023\014\276[\027\213\2754J\350;QZ\327=/\212\031>a\342\030=\372v.\275\020k\364<\227\n3<\301\340\330\274\370e\036\276C\241]=M\3056=\215\327^>\334\322,>\350\230\313=\010v\223\274\272N/=Ba\215=9\202\t=N\034t8\223\304\300=\2778&>?=\035\276\206\361\224=\217O\026>\362\353\326\275\357\263C\276\257\0067\275\235`\241\275\376\324\016\275a\272\350=\333l\335\275\270#\223\275h6\361\275\326\\\332=\020\270\372\274\253\323\201=.[\234=J\341>\275\"s\376\275DRP\276|\020\201\276\331\256\372=3\317>>\023:=\275\254\202)>\322\260\004>Y\347\235\275^\201=>K;\253\275I\261\222=6\025\034\275\367r\242=_vD>\212x\207\275\236\317=>\266-\370=\260Y\251>\224\367`\275\363\265\322=\264\232\347\275(\270\240\273\217\206\267=\246w\273=\313,u\273k)\032>/\242w=\355%\000>\273w0\2760\331\231=\226\017\020\275\262\312\327\275\366tN\276\023\363\r>4\262b\275\220\036\026=\010\001\366=\262M_<\025&\213\274\217K\210\275U\211\244=\274\007\031\276\316+\310={f\013\276^\272\362=\"\350=\272\277I\314=t\006\202=\232\213\335=\016\364\264<=\014%\275\034\\b\273y\217@\275N\340\035\275\222\247\267=\023Hx\274\200\347\351\275g9\243=fI\245\275\243\270\'=#A3\276)\017\364:5r\004\276q\205\032>9^\004\276U\220\n\276\273:x=\234\034\206=\264\270\366=\305\236\026>\2563\372\275\346\317\006\276\267\251\206=\272\367\242\275\004\274\024\276\003\274\375\2724\037\331\274pnC=w\t\203<\213\335\354;h\017$>\\g\217\275\n\243\374<\\-\200=%\245$<Gj`=\036\332\321=Qw\306=\214\363<>(\"><R\025\005\276\017\345p\275\\\212\375=;g\216\274\314\007\320\274U\006\370=?\361\016\275\2461\272\275E\001\370=Q\031\225\273Y\354\246=\0248\032>\275\353\370\275\223$\"=y\221->\210F\004>\014[\035>\245\036\252=\224\357\276\275\333\\\277<5y\025\276\313g\030<\304\2302\275B\027\007<\034\303\320<\"[\245\273B\023\377=\202+\254=\236_\360\272\300\021\214\275B\177\344\275)\037t\275\376V!\275\306T\n>\325\365\264<6h\027>\372\377\004>\321d{\275c.E\274\031M.=p!9>\246^\212=\225\302\330=\\{\013>\222\310\253\275A\330*\275\262\314)=\305\306A\276A\255\255\274\322\254&=\210-\234\274\207\324\000=yI\274\275\214d\002\276\336\254\027\275 ?\242\275*\210C\276\333E\211=\345{\265=\344v\270\275\312[V\274\357\2574\275z\336\333<!\037C<io\313\273=\226/\275\037\215\036\276JD\017\275\372$\274\275\312\033\270\274\342\300\224=bY\204<\252\257\216\275\032\2560\276\324N1<\363\252\000\275\2433A=\207\352\331=\220\231\203=\252\360\234\275\337b\002\275\311\243\275\273nT\334\275\265.\246\275\344\216\021\276\310-\212=k\246\005\273=\340\033=\271*\322\275#c\372\274\004\033\326\275t(\036\275\374\205\327=\310N\333<&\177r>\323\220\277=\'M\373\275\277\227\313;\016=\r\276\202N\265\274X\256\373\274\325..>\350\3245\275\202\021Y\276\240\371\242\275\221O,\275\352\n\024\274\345\2007>\257\215&=i\r+\276\206DD>\372\274\303\274L>\003\275\0137;\275\370\251\021\2756a|=\310\rd\275mb\030\274\252\266\215=\361\243\231>\256)\347=:\323\236\273\257/\363\275<\3132\276A\363\250\275\003\331\021=\301u\203=\344LI\275\r\262n</\203B=1\252\t>\345f\247=j\222D\276y\251I=n\346\205<,\317h\274\261\014p\275^N3>\320\256o\274\014\032r\275\n\247\254;\247\234\203<\n{\222;\006\234\t>L\242\004>8\207\230=\224\216\322\273\316\210\342<\000)\207\274\360\t\260= \256\352\275\317\226\235<d\236\220=\235\226\350\274\207Y\024\275\324\354\377<\3028=>\324\232\331=\370Uj>\356\203\014>\224\"\310\271\003|E\275\313\330\256\275\267R\021\276mJ$\275x\344\202\275.\220\324=\035\361\202=\251\3070=\242\017\227\275A\242B\275o<\356\275N\006\274;w\342\220\275Qk\215\274\357\240y\275\303\330\233\275\263%\027\276\\\237\275<\357\211\340=\370\340\315\275\307)(\276\031\277\211\275\275,\277=\0363\250\275q\211\r>\311\024\323\275\340\333J=$\013\274\274\262\246{<\'|!=\312\266\365=\031s\\<\\v\240\275\\-9\275\030\2347\276F\365\221\275\365\033\313<\271\341`<\371\005\\\275}s\237=/\331\033\276\235\364\005>lmI>\200\303\006=Z\326\247=\336\364M\274:\362\306\275\302\230\326=\006\363[;\252\336\224\275\3157\033\274\216\366\371\275\225\261\362\275]Zb<\364\316\233\275\327\006I\276\014\231\027\275\374ba<\276 \303\275L,\200=\331O+\276o\3717\276O\2018\275\257\212I\275e\177\211=9x\264\275\2264\272\274\256\265\346=7_\013\276\347\314!=\360d\235\275M\266\241\274`?\035\275e[=\276 \177H\274\336\331\214\275F\322L\275\344\307\304\275J9\'=\322\305\320<\254\001\336<\306z\346\27504;=\026\t\300\275\266\354\241<\306\330K=LI\363\273\322\032P\275\2303\250=\025\347\004<\225_#=\016\227\346<M\262O\275\277\334\236\275\364\r\033\275\027\354\027\276\371o\243=\211+\372\274\3356\200\275\350\007\035\276\375\020H>b*\355\273zC\260\274\010$\323\275\306x\224=\215B\334\274B\301\313=@\314\301\274\212Y\256\275\336\242\"\276c\031\262<\244\t\306\275m\363\311=\315Ct<\001\300\266=\024\344\263\276Y\300p=\266c%=X\327\026\276u\253f\276\243\216\177\275\2656\312\275ht5\276\253\356\315=P\r\035>n\275\203\276\261\033\245\275\215\253\203\274\227\200J\276\030`\310\275C\\\375=\200\251\277\274M\373Y\275\030i\315\275FbF\275j\345\232=\244\332\201<\230\213B\2741\356W=\333\370r\275G\362=>8|P>~f\272=\261\2721\276\214J\233\2757\327\240\275\014E\366\274\233\032\201=\226\337]=\0204\213:\242\252Y=\233\356\347=\005]\314<\230\207\267=\333Lk\274\201\2312\275\001\177\322<\333\214\250\275\356\233\353<\374p0\276U\025\355\2754\030\364\275\273\364\027>\177:\356\275\352Z\037=_\025\022\276\225FR>>B3>\227\267\260=\340\227+;oxt=\362\253\330<]\033{=\030\326\035>\024\307\211\273\370Y[\275pC\336=Q\027d\275\360g\013\276\030\216\027\276\341\210\260=\204\355\355\275\177\005\357=\266\311_\276\247\325\025>Sz\021=\346\371\262\275\274\306\357\275\374X\277\274\216\373\025\274o>?>}\252\251\275\260L\347\275\\Y\025>\234\031\316=Y\224\033\276N)\n>I\307\372\275\301\357\001\274{Y\302=O\001r\275\3054+\276\221\264%>\301QC>\343\340/=\013Ji>\200\241\334\275\177\233\222\275\356\211\234=\\I\241<\235m\220=\206w\024>\333)7>\225\304\317=\244y\371=\247{{=j\265\360\275b\220%=\351\017X;\317\3139\274\217\324x=\227\263\232\275*\030\273\275\263\032\n\275l\257v=r\201\"=\010e8\274ZP\014\276\000q\343=*A6>\035\022\323\274\326\033\256=\205\210\034\276\212V\216;[n\334\275\"\374j>?.\373\273}\034F\275\226-\346<\3760\032\276\016\354\307=\"v\252<-\257\356=\237Gz\276.\204\016>&\302\264=\3635U\275\315:\365\275\310\273T=\234{\247<(b\022=k\037\033=k\334\020=\200d\242;\274\245*>\3124\250\275\027\036\373\273\023\265\233<Q \372=\217t\005\276Rw7\276\227\245\014\276\320\304\251\276\264\317\372=\240\301\376\275\324\354\357\274\234f\026\276C\224\030>\214\332#\276\257\025\035>\262\223\"=\261g^\275,\347\326<\224\020B>\025\203\223\275\007F\030\276i\303\277\275\321\177Q\274\223\366\247>\270\005B>\240\265\023=\354$\030\276\027\202W\276\276\340\342\274\327\0365\276/c2\276\311vs\274P~8\275CT\374\274\006\362\032\275=\t\246\275\227\256\006\275\030)1\276%\007\001\276\260\330\336\275\316*\001>\227\273\314=\305\251\305\275\251\371\320\274+\322_>\207*G\274\356\252\016>c\335\212\275\211\271D\275\256\032\346\273\016\311T\275\347\366\306\275\275p\237=\364Z\235=\177\202i\275\315\307\356==;%\276\230\005\360\275\336\r\204\275\262\262\306=L\0311\276X\371\032\275+Z\237=c\017#\275^\351\302\274\327\241\r>\303\216\004\276\367\205O\276\345\034\020\276\265\301$\276\373\024\007\276\275\004U\275\300\322\256\275\267\020\306=C\2403=\002\"\350\275\323\010B>\354\226\0378\360h\202\274\275\177\013\275O\004\304\275,\004|\275\345\277\003\276\326\277\244=\037(\342=BC\224=.\331\300=\'\033\024>\027\177\023=\327\322d\275\310\362.>r,v\274F\245?<Lr\336<\257\037\335;\247\362\023>M~\302\275d`W\274/\372\211\274#\266\000=3\302\267<\316\252\242;\"E\223\275\224\277\205\275\257)$\276\032m\265=h\360\206\274%d+>\"\214\253=\273M\360<T\357\275=\027t\007=\365\320\000\276\021H\340\274J\273\001\275z\272\276\275\250\025\026\2763\373\224<\234S\243=\251\366\235\275G\307]\276\201\0368<\225\024\300=Ck1>\267\004\275\275\221\270\251<+\354%>+\362H=z\010\345=w\241\355\273\036_\232<\'33=q\257M>8\300\255<\372\226\001>\214\336Q>\3316\321=\251\223\233\275x\343\325\274\333\025\373\270<5&\276\023\372\244\274\360\232\216<\241S\016>{d\265\275h\030\225=\325s\036\276\202oO=\025\2227\276\325\354\342=X\312\'\275\331$b=\321\324\256\275!\002\331=\261G\260=\t\220\203=G\242Q=\024~)>\226\033<=a\021 \276\332*m\275m\224\357=\315\333\013\276P9\330\275\234S9\276U\026\036=.\261\320\275\352!)\275V\303$\276[\037\000>o\270\247=\264\334\233<b\221j>\007\032\236;>\013\304=\036x\276\274oR\256\274\337\254\\=TL\356\275\312|\332<\004\251l\275\377\234\214\275e]\205=:/;>\025\003l\276\362\335\355\275\217\026\022\275\240\014N\276\"A\217\276\'\243\254<m\344.>\241\345\227\274\207\375\026\275\252\324\342\274;\225\301\275b^\001\274\203\235\256=\375)\367=\377\322\267=mS(\275c\342\337\275\010.G\276<\264?\275\320\033\252=\216\014\007>\270$\204\275\nB\355=\346\205\245=\303\202\350\275\3646\002>\250\321p\274\221\351g\275\361\337\357\275\235\013\323\275\3662}=\340-T>\343S`=\270/ >\315V\002\275F\0019\273\215{P=y\026f\275\3173\n\276\253\022\021>\274\357\332\275\350N\200\275\225\227\274=e\253)=\262 \216\274}u\303=\341\n\037>\375\323\372\275\036`\014=a\026\t>\360]N\275\217\323\207<\2410\205=\276\tg\275~\033\001>1\206\250\275@\367\032<bm\335=%\202\355\275\316\325H=\217\314\303\275\244\346\355\272\331\326\242\274\337CB;YU\005\2764\004\014>1\020\024=\377\213\200\274\007\315!\276\276f\310\274\374\262\375=\205\350\226\274s\311\241<.X\031\276\354\210B>\2502\227=o\240f>cv\376=\\\373\n=\312\t\340=F\205\004=q\270\236=j\320\347=\036\036\020\275\234\010K>\200\237)<\364\345\212<W\341\224=^\013\272\275\027\350\345=!y\025=\363S\213=\336\374o\276<\373)\275\177\255\247<\223\376b\276\227\366\244\275\270\266%\275k\004-=\270\223\313\275\221\374\373\272\236B4\275_\235K\276\253\265\\\275\355-6\274\201%\274\2743M\345\275V\364\315\2738\357\372\275Y\342D\275\2177\n\276y\372\006\273\276n\264\275 \264 \274\240\241\204\275\372|\255=\336x\264=\255\335\327=\302\367%=\235\377\207=<\035%\2761\203~<*\345\335\275\004\275\213=\211\013\247\275\341`D\275Qw\233\275\370\365\227\273[\211>=\314\264\362\275\241\320\263\274\277\211\r\276\200\226v\274\330T\324<M\234\342=nNG=\271*\263=b\002\024>]\t\024=u\005!\276.\010C\2760\'\322\275\315\205\002>\326\206\024\276\307\305T\274\331tS\274\352\252\255\275\240b\216\275\021?\006>\224\233\213;\00775>\035\244\325\275\366\334\017\275\366\315\335\275\216\304\005<,%c\275z\'\233=sQ\202\2758\243o=`\3041\275\\EH\274\312&F\276\030}\345\275F\375\237=+A#>\330\237\370\275N\r\332\274\026\267\004>\334\\\177<\001J\362\274X\331\261\275)\215\036\276\260\244%\275\235\236\321=T\310r\275\316`\242\275\202\206\244\2758\351\016\276\204\005%\275\255#\207<G]\n\275\231H8\274\225\205y\275\346\021\024\275b\226\217\275B\034)\274F>\304\275\013E\023>\301\301\270\274\343\253\241\275\266\317~=\312\013\264\274\036|\361\274jA\306<\306?\357=\ni\260<?Hk=\241\273\335\274\027\242\203=\006\005->\254)\263\275=s\032>0\320\201\275\243(\344\275a\014\034\276\220^}<\260$\024\276m\366^\276-$\357\275\220iH=\316\240\323\275<Xx<y(\016\276\364R\373\274\274\236\010>l\360\320=\032\0320\276\321e\360\273\213\247)=\366\t$\276Z\033\244=X\2232>\372l\003\276O.\264=\360\251\371<\273\357\272=\355\343h=\27596\276\301W\342\274\246\322\263=i\302e\276\344\371\023>y\320&>D\245\022\274\311c\201\275\340\213\225=\276\244\243\275\006\362\272=\010\270\261<\375\344z=V\3215\276r\276W;\250*?\275\325\2171\276\323\344\215<x\266\223\274\0303\\\275\313&p\275\241X\026\276\346\375\372\275\202\031\340\274\275\275\262\275\230&\r>\356\211E\275\326E5=C\204\247\275\320\205\352<\222\035\331<j5\247\272G\237\341=\363\277\262\274\277\006)>]O\217\275\221\r4>a\244\301\275h\377\t\275\271\3213\275V,\203\275\374\242\035\276\022\370z\272\213\352K\276B\226\342\276\260Qx\27666(>\276;\017\276}\375\333;~;\205\272d\221<=I\216\270;cv\334\275\016\304W\276\250\256\242=*d\357<\201\3255\275;\340r\274s\276{<\317\370\342\275\273\033\207\275\214\254x\274K.z<\261\361 =\350\301>>\rJ+>\r\233\005\275\371a+<\t\212\005>\300\370\003>W\302?=t\023T;0\235^\275\357\033\315\275\003\017/\276\233\230~\274\270\325@7\214\014\264=\307\345\r=1^S>\263\325/>\003\020\021<\n\030b\273\026\202O\275\373\026\254\275\"X\305\274\365\310\313=\003I\246\274\205\210\003\275\232u\210\272\324\257P\274\300\260\n>\037\026q=\235\315o<\177\'\270=\021\276\315\275\260\031\020=\016[7=\303\277\036\275\201\334P>T\354\302=\003\376\271=\256\025&>KMm\273\027\373\202<\270\246\316\275\306`\232\275l6%=\341\2676\275\367*O=)$\035=\213\340\\=\346\333\246\274\367\227\366<QS\215=\364\213\t>\262I\236\275)\202\357\275\327%\'=\342}s=:N[>X\\4=\01053\275\363q\272\275&12>.\271W\275Wf\"\276k\004\304\275\323\301\362\275\347\021\216\275|V\306\2757\222(\276O&\006>\005A\264=\367\352\214\276(3\322\275!\317\352;\'\326\250\276\251>\330\275\3767d>\207y\236\274,\267\306<\233\332\022\276b\224$\2756\274\256\275\355\300\221\275po\"=\004m\202=\262\203\210\276\336\252\271\275L\226\033\275\200f\"=\366x\"\276I@==l\211\227\275a\320*\276D4\023\275\365u\362\274\016F4\276e\200y\276\253\262\006\276H1\266\274]$\'\276c\300|\273Q\360Q\275}qV\276\307\256}\276\253\256\261=\210\001\212<\271\223\373\274\214,\226\275i\271(\2761\036\022\277\365\337\315\274L{Q\276\254`\246\276\262\314\350\275g\242\036\276\251\332\210\275\005\222\035\276\351\334_=\007!\204\276\245\366\257=\244\032C\275\347\225\020\271\036V\032>\303\033\225<\221mN\276\310\234o\274PH\n\275\270a\t<\032\250-=\200C\035\276\253\223!\275d\213\236=2\360\220\275\0220\031=8\260\234=\207\275\010\275\020\376\336\275\\8\273\274\317\224\230\275\361\025+\275\355~\321=\216\305\304\275\347Z\331<\326\2673\276\243\336\254\275\200\377\331=\222\312\033\275\323A\301\273c\321\004\276\034U\232<\217\301\213\276i \006\276\365\354\301\275W\225\270\275\030Q\242=o\377,=\360\370\007\274\257\001\322=@\361\215\276A\245\302\275T\225(\276\271\357\027<\374\2708\274M\017\374=\205\363+>e\034!\275\010\254\t\276f\263p\275\265\365\200\273\221\334\244=}j\243\275Wf\203=UY\031\276\306\203&\276\210!\213\274?\236\266\275\352\214+\273i\307\013=NJU;\240\221\367<\342\351\254\275K\316\033>\337:\211\276\013\203\215\2748\301\034=\312r\316\274\202(\003\276h\203l={\\\301\274\322\2215=/\026z\275;\361\010\276\304@m\275\221\255\346\273\005np\275\262\263u\272\301\360\220\275f\"x=\301.o=\363\365\210\275Q\034\243=/*)=8`\356\275\365\363\\\275\0378\030\274\376\375]\276:E\020<E\367\000\276\001\023H=E\234v\275\262E\223\272z\361\304=\264\035\234=ca\316=\365\t\231\276\340\037\355\275\216\022S\276\306\206\001\275))\225=1\007\330<\010\214\r>\266Sj\275%\232\334<h\213\010:\376\360\021\275pe\3657q\013\361<y\332d<\355\3738\276\222\361f=\033\366\241\275!\247\025>\2061p<\037\020\'\276\335}E\276`A\r=\350G\034\275\231\346\303\276\236?\t\276\370\324U=}\002\025\2760qP\276K\221\n\275\256\277\201=\236\261\324\275\232XE\275|_I\276/%\035>\301\034\215\275\020\322K\276}-\020\276\255\330P=#\216B\276\216\352\325\275\262\032\310=\017\207\030\275\037\335e\275\"(\253\274rP\030\276\204r\254\274\320\020(<9{D>\377CY\276\361\226#=\"\200\216\275r}\255\275\316`\324\275\3556\217\275\305E\323=\004=\312\274\006\302\254\275\374\r\233\2753-\366<\217\t\'\276\323\203\225=-\330\'>\367\362\207<\242\2263\2768\260Z\276\365\t\314\275\261\t\312\275m\020\004\276\024\\\262\274\346\340\366=5\247\331=0\330\335\275\345F\367=\301\360+=\251\360\333=\342k\376=O;(=\367\027\006\276:\027P=\253=\003\275\366\212\372=\361`/>\036I\276=\303.\322\274\204\273>=;\356G\276BA#=|\253>\276\243<\204\275\337\367e\275\002\322\362=\016\203b=\024\243/\276\312\034\230\274\021\371\332<y\357\035>7\360\021\275\342\034\214\274\226\210\371\274n\033\217\275x\255\\\276/\216\313<!\314\032\276\216\372\277\275uQ\321<\244\374\357=,\327\234\275M\032\217\275hXD=\335\301.>>\301\t>\005I\200=\301o\002\276\264\367\006\275HD\023=O`\331\275\271x\251\275-g\361=\036\203\007\276\321\363W\275\004\213\303:Km\271\275aL\\>0\315,<\220\013\264\275\n\217\313=2n\322\272\006\227\000=AH\211\276<\036\037\272\233\277\216=\212\301\256\275S\262\240=\356K\223\274\020\275c>\352\212\257=]\030\n>DHi\275{\244\215\275\323\235\222=\'\210\001>\355j\271\275n\232\347\274\324]\272=\014\313\000>\304v\002=\302L->\225\027*\276\373\336\205<x\252\026\276`\231n\272\350\227!\276\320)!\2763\336o\274{8~=3\3363\276z\311\216=L\263_\275\252\350X>\024G\205\275\373v%\276\275\013\267=\261L\n>\276a\212\275rV\031<\225\0300=\030\250\034\276\005]\006\274(\316\025\276\223zd\276}<g>\n\035\232=\306\256\034\274C\275\005>\377\243\304=iMc=\2160\233\275e\030i\274MS\207\275\311f\022<`\035k=\217m:>\271\244*>\037\233:\276\247\010\000>\233\342\022>z\314D\275\r\341\207\2759+\035\275\201\351\036>?t^>\337\3520\276\355\222\t\276A\033\213\275k\316\332\275\323r\002>\327\317\t\276\303H8>\225T\036=\235J\020>E<\021\2747\025\'<2v\262\275\277\035\303\275v\265C>\373\037\230<?|\035\276z\232\306\275\\>\363=\016\213\357=\247}\251=5\201\021=S\333@=\276dN\275/](>\255\025\200\276\304\316\246<\253\361\017>I\317\006=\364T(<!\355&\276P-\246<\n\030\001<\203\035\211\275r\301\371\274\t%\307=\244+A\276\362(\003\275\301\274\257=\365\030\344=\000s\242\275\245\245!>|\347\003>N\376\226<\216C7\275\345\221\"=H\031\340=\313\3747\275F\223_\275\265\352\254\274-\214\021>\264\343;\274\231k\025\276\202\363\217;|w\272=\214\327\367<p\342\020=\366-\234=\217s\007>\241\367z=\213\304I\276\005\366\\\275\n\227+>\316\334\335=K\304\r\276\\q\253=\360\006\246<\361%\n>\013\213\255;\030kN=\005/p\276\360\305e<\212\360\376=\322M\246\275s\037\365\275\370\334\210\275,\310\026>\235\276\262<Q\211r\273\314\305f:\311\362\034>B\217\214=|P*>\316Z\335=\202\334\306\275\261\021\214=\251\264\220\275\375<\211=\306s\236\275V\303\254<;]\021\275e\3501\275\030\303{=\273\020\003>XA]>!C\005\275u\217m<\032,\224\275\242\020S=\314g6\274u />\241G\017=\300\367\355\275\017\274(\2754\267S\275\301\343\236=*\341\372=\207\210f=7jI\276P\321z=\253\026\266\274!(\264\275\221\270\000\275\346\\\037=\364\222\016>5\226\315\274\002\352\256\275\370\230+=\236N\270=\006\330\336=S\265 \275R,\005\276\320\272\013\275B\1777\275E<\255\273\372\362\372\274c\331\373=\217\'\234=\244\262\211\275\204D\006>\rR\306<\010\351\202<\335l\327<`\024\246\275\177\r\376\275d\024\246\275\356\203\000\276 \022\262=1y7>J.\031\275\266\027\344<\206F#=4\275.\276\323A\375=\301\210`>\\.\364\275\333\230\313=]x\330\274YU\257\274\200\350 \275\035\010\350\275\223u\217=\313\216;\275\303\320l=&\010!\275\032>\331=\253\224\227\275\336\343\366\275\3277C>\325\257\000\275 \0341\2755\227\250=\371\272\363\275v`\322=K#:=k\023\373\272\200\003+\276\230B.\275\263bR\274\247\302\002=p\357\336=\215\271F=\317:X\275\344\277\033\275\237T,=6~\036>(HC<\230\n\003<\004a~\276\362E\010>n\3453\276\200\031\023\276\010\2430>\014\212D>\233\362Q\275\343O\016\276\353\234\255=\236Z\321=X\220\312=\205\033:>\242\375\027\276E\252\235=\227.\315=^\344K=\\\363\347\275i\200\035=\304\314\351\274\206\341\312;\373ml\276GD\307=\364\275\270\275\216c2=;\220\253\275m=\032\276\363.Q>{\002\270=\234\374\344\275\245\221\n>Xkc=\303 !\276)\212o<\347k\206\275\335\016\210\275\0135\r\275\356\362\362=|\3634\275\312\375\274\275\234k\244\275X6\322<\205C\325=5\003\230\275\322\371/\275\034\274\274\275\007\030(>\265\271\373\275\361\006\312=\266t\031>\267\246;=\207\310\036>\327f\364=\217\256\337\275\034 *=\220\036\232=\231\3334\2753P(\276\0251\274=\375\004\277=\356\252y\272T_q\275*@\252=\357\277\025\275\212\201;=\032\330\355\275\363\204\204\274\356\245h\275\221w-\274\250\343%\275\226\3639=\214)\010\276\350/\037\275\0370\375\275\026\371\215\275\017\231\212:e\265\206\274\005\340\007>&\327\007=`h\227\275\313\377\n>\024\025\020\276\322\345\275=\341Zd<\200\311\030\275\274tp>N\013\215\273o\201\030\276yW\366=\210\320\301=\220\\,\275\315\304\307\275u\207*\276\326\006\004\276\345\355/\275\030\224\022\275\223W\201\275\365\2436\276\247S`>\377\320\032;?\275\342\275Rr\327=\n\262L>P\253\233\275\2463\335:+\210f\274\2331\324\272\177}\214\275\3424\314\275\362\364\211\275T\303Q<\365\251\336<\353\232\330\275\255V~=\021\031\242=\336&Q\273U;4<\365\366\365\275wb\253=OY>\275\361\221R\276\202s\374\275%\307\032<3\372G\275\014\206H=#W\370\275\227\031\021\275\300\272[\2753\303\331=\364]\203\274\254\006M\275\336\250\021\276\2272\315<\233;\324;\316\004\270\275x\257<=[\0319\276\270f`<{\274\032\275m\310\017\275\330\257\211<\016\252M=\336\263\303\271cK\336\274b\020\007\274u\0062\276)\276\230\274#\373\251=(\332\020\275\307\2715=\325k`<\367\245^\275\225\006\364<\347\371\302\275\207\205\373=:[-\276\r\330\373=\201\261\205=u\004$\276\321\2532\275\001\347\235\274\'\033\363\275\373\200{=\177P\254=\344{\337;Nw\350\275D\305]\276\252|^\276\t<x\276\344\260\226\274\2649\334=\362W\027\2745\271\002=\034s:=>\241\365\275\000s\262\273\347&Q=l4\026\276\204ox=)f\207<\203]\351<\335\207\326\275\251\007\211\275\211\361\244:4~\365\274\276.\227\275\304*i=\261IC\276\335\'\247\275\367\364B<\352 \003\276\276T\351=\222>K>\275\217.\275lT\001=SNe<\224\322\367\274G\236\272\274\225\304Z=5=\376=\373\t>\275\265^\205\275\217>\277\273\001G\355=\354u\004>\251\221\"\275\306\272\355=r?o=\234C\226=z\256\217\276\274U\260\275[\377z\2750\026\202\275\003\242\343\275\030\003 >\267\375\242=\'Nw=\032\001\230<\372N\247\275\005\266H=\305\221O=\201\241\223\275\354}\252\275\200\0006=\002\345\277<x\031/\275\252}&;\242\0355>\3051\201=%\246,\276z\217&\276\tCn\276\033\325x\276F\214\320\275fi\215\275P\254\024\276s\321H>d6g\276\331d\262<R\004Q=&\367I<\226\316.\274W\371\260\275]\262\212=\201_\214\275\330x\363;\215\201\222=\034_#=:\337\301<\035\347\274\275\3266\222\275\310d\334=\311\214U=Z\010\032<\335\254\260=Hi\270<\341K8\276%;\017\276\224Q\247=tb\215=+Q\241\275=w\270\274\320\313v=\224\2212>6\001\265=\177\276\256=\312_\356\275\203\270\025>\321g\210\274\203\356\205=J\353\274=T\270#=Z\240>>\260\007!\276`\007\242=\335x\275\274\270o\347<~\265E=\275\247\211\275\356\3253>\320S\003=q\224\035=\266I\233=r\263*\276\345\313\'=%\323\271\275\3171\350\274\277\355\202\275l\271\033\276\035\341a\275\315\024\021\276\376?\312=\017\310(\274\350\177s=\220\362\236\275\237+\037>8\322~\275N\310>>\237,)\276L\365\036=/\303\022>pG\330\275\235\303g\275\177h\236\275Aw\305\275\0022\373\275\200\266m\275\013\255;\274adI\273\255\220\227=\367\271\206=%\275\216=q<\324=\3257s\274\013<\256\275`\022\374=\271\217\227\272\230\027\000>C\351@<\343F\027>\313\265\004>;\226`\276+|\024\275\215\262>>\2124)\276\215\215\233\275uN\273=.!\373\275U7\014\276\331\207\313\274x\250$>\211\340K=\021\276\227=\266Z\276=\254VI<>\255o\275\365\237d=%\225<\275\3718r\274A\304\332<\035}\260\275\001\335\020\275\241@c\275I\200C>\231;\000\275\227^\313;o\241x\275\365G\t\275p\350_>,\323\254\275\r\345\013=\330\024\207\275\271O\002\27625\312\274:\364\264\275\304\363\222\275\356\327\004>\272AB<\342;\321=eR\177\275\251\306\200>]X\005\276v\374\200=jz`=\205\315\264<\224\247=\276\222^\237=\327\256\024>\031\230!\276q\004\273\274\361\204\245=\210\320k\275\251\204\226\275\314\244-\276\353&P>P\370\320\275)>I\276\363\346\227\275\241\340P\275i\270\004>\375N[<\3004{\275\1774\316\273\366!\"<\231\253\016\276a\337\364\274O>\235=\372WJ\274\253}\322=\354\276\202\275\204;\025\275\006\312\375;\277\337\263=\342\304\371\271\033{\307\275\\.&>\30080\276\275f1\275\237\312\341<O\020\036>\333\343\352<\253)\232\276v#\303\272!~J=\320\270\266<^\216\033>O\301\226\273L\246\263=\014\261\350=HF\213\275v\rw<z\005K\275\351j\334;\205\223i=I\004\030\276\024v6=\223\021/>\374)\227=$\360\362\275\326]\n>\217\013\005=\357>\200\275\305B$\276%>\024\276\216p\217\276\315\023\251\275\230K\356=\253,\305\275\244\032\365<\254\\\206=|F\335=:\017\n>\264S4\275k\316\207\276\254\366M=O\361$>V\205d\273\016\310\367={\375\244\2745\327\005\2766\'\007=\272)\013\274_\014\357=\236\247\256=\265y\030=\325G\200\274\030\r\020=Y(\242\2750|\t\275\225n\271<j|R<\335\353\355=\267/&\276\344e\203=\306W\335<\\\377\031\276\337%\025\276^ZW\274k<\237\274\200,S\275\336\373\311<\320:\223\274?\366.<\n\n\364=\026m)=\356w{\275$\t\261=:G\252\275\230\255\212\274r\000[\273=\354\237=]\335\350=\034\205\036>\214\027;=\320\255q=\314C_\274 \227\025\275\360\037Q=\030n;>\206\335;;\211\217j\276\305\035\322=\305\343\265\274\230Ky\275\331\366\204\275O\354G\275\315\022J\276\366\025$\276\3366\235\276nf\326\275 >\226=\363j\010\274\212\237\t\275\233\310\024>i\361\367=\206\325\273=\0316\241<\270\207\031=d\004\236=\216\035\206\275W\312\202=\277l\264\274R]\025>\213\234N=\227`\326;\321\207p\275\024\260+<\260\005W\275\344\300\216\273\362\222\325\275\300\371f\275\021a6\276\242\211\336=\237\032\033\275w\213<=\253\274%\274\346\352`\275\0015\276\274(\365}\273\365\222\346\275\034^\226\275q\177J\276\220\277\265\274e\234\006>y/\322=T\355\003\276K,]\274^p\222=vc\274\2744\250\324\275\376\307\177<}s\035\276\254d\216=tD\221\275\276sO=\003\021\275=\331p\274=\365\010Q\273\003\226\250=g 4\276\377]\016\276a4\234<\301\366\232=^=5\276\01722\276;\017\221=.\340\351<:6\n>\271\022\223\2745\027\010>T\277\373\275\353\231\021\274\373\203M\276\360\255\340\275]\260\034\276$\337.\276\261\237\235\275}\260\316\274\010\272\255<-g\202=\214JV=\257\031\210\275|\206\306=\300G^<!\311\254=\364\2557\273=\020^\275C\0322>\334\000\340<\210>^\275a\361C<\210i\367\273)\210\'=$\257\331=\271:\346\275}\r\346<\354S\363<\306\240\263\275&[K=\260!\240=wR\016\276\005\261+<\335z&\275\270\3427\275\245\334\303\275w\3273=\231\"\272=\207\037\021>*\006-;F\276r\275\0258\371<q\211\220<\236\333\215=2\236k>F\364\026\272\375\034\353=\311\007\247<\275\254\312=\036,\026\276\3503\037>\271\260n\2755\302\201>\317(u=\006\223U<\256 .>\276\3761=<%\302<\007\352z\274\301\000\265\275\216s)>\013\265^=d\325\356=\265\273\350=b>N\272F\227\206;\250\355\006\276R\t\020>a\212\010>s\242\371=9\362\342=B\315U=\375*|=xP\222\2750\331E\275\257\023i\276\227M\n;~\301\346\271\354t\261=\252\004\334\274\357?.\276\372\3713>\033vD\275\206\347&=\203\236\356\275C\222\220\275\364\000\241\275C\221\203\275\346\364\300\275\350\274L= \316C<\\^\005\273 \274R=!\335\027\275\320l\002>\266\324\342<t\006\217\275Q\2724=\034\013J>$\252\251\274\351\220E<%\315\364\274?a\304=o0\003>\276\272\336<\313\353\210\273u\375\031>2=\275\2744{6\276\233\327\322=\264\376\205\275\3447\336\275\277\221\013\276ZSS\275v!\250\273B^\267=\036\003!\275\313?J\275|\322\032\276\231(\301\273u\372\311=/\262k\275\372\021[\275o\351\207\275\254\301\366=\210\355\305:\274\304\373<\323\361\030\276\002\3404=\025\333\226;\202\313T\276O\366\335\276\032\024b=\342\226\231\274\275Y\345<h\363\227\274\n\265\036\276#\205\241\275Ghi>\211\362\365\275\355\010\231\275\263\216\304\275\322\356\307<\021\321\t\276\257\214\223\275\237v\000>Q\275\240<Y\231\325=\035C\237=AD,<\301\247\235\275_\014\253\274\225\374\265\275\256Jn\273\367\251\244<\"\334\"\275\344\177\374<\330\035\034>\262\346\001=\031\325\216\275\344;\232<MO\247\275%\000\016>\031\362F=I\031{\274\036\353\252\275\256q&>\272\255\"\276\310\244\235;(Y1>\374H>=\034r\036\276\332\n\371\275\332\001\267\275[\322\307\274\223\343\353=\221\3605=\031\246\320<\005\372\207=}\000\023>5\202o\275\030\277/\274\2577=\275\204P\240=B&\224=\242|U\276\022.4>\322\235:=\014,\302=\317\363g=\235v\352<\346.\335\275\243\365(=A\221\200\274\033\331\260=O\243w>\034\236\213\274\367\322\022\275u\3547=\007\377\201=\214<\017>\312\007\300=\321\327X=\006)\266\275 