node {
  name: "inputs/b_images"
  op: "Placeholder"
  attr {
    key: "dtype"
    value {
      type: DT_FLOAT
    }
  }
  attr {
    key: "shape"
    value {
      shape {
        dim {
          size: -1
        }
        dim {
          size: 64
        }
        dim {
          size: 64
        }
      }
    }
  }
}
node {
  name: "heatmaps/reshape/Reshape/shape"
  op: "Const"
  attr {
    key: "dtype"
    value {
      type: DT_INT32
    }
  }
  attr {
    key: "value"
    value {
      tensor {
        dtype: DT_INT32
        tensor_shape {
          dim {
            size: 4
          }
        }
        tensor_content: "\377\377\377\377@\000\000\000@\000\000\000\001\000\000\000"
      }
    }
  }
}
node {
  name: "heatmaps/reshape/Reshape"
  op: "Reshape"
  input: "inputs/b_images"
  input: "heatmaps/reshape/Reshape/shape"
  attr {
    key: "T"
    value {
      type: DT_FLOAT
    }
  }
  attr {
    key: "Tshape"
    value {
      type: DT_INT32
    }
  }
}
node {
  name: "heatmaps/firstConv/Variable"
  op: "Const"
  attr {
    key: "dtype"
    value {
      type: DT_FLOAT
    }
  }
  attr {
    key: "value"
    value {
      tensor {
        dtype: DT_FLOAT
        tensor_shape {
          dim {
            size: 5
          }
          dim {
            size: 5
          }
          dim {
            size: 1
          }
          dim {
            size: 32
          }
        }
        tensor_content: "\272R\375\273\231=\357\274\277\014\261<\2156u\275U\251:>\340c\324\274\241[-=E\265\230;\003\032Y=\314\001<=\254J\365\275\273\240<\274jY\264\274\225\311\003>\021\004o=\226\t\007\276b\234m=\322\373\354\275F\246(\273\350U*\275\016D@\276\346\001\310\275j+\244\275JD\220=\214\373a\274:\212\231\273\344\367\226\275W\332 ;\267M\330<\207b\220;\355\302%<{\273!\276\025~B=0\024C\274\316\362>;\325t\007\276y\3035\274]y\366=I:\000>\\\337\212\273\232\367\216=\000\317\314\274\300\240\351\274\033D+=\035\213\032\274{e\273\273\345c\325\275\r\337\"\276\342\032\374\275{\024\013>R\236\200\275\006?\260=\363\027\240\274\222\315\252\275\\\342g=0\270\305<\276q\237\275\274B\252\275\257\026\230\275\275\237?>9\023\024>\242\354\000\275R\3354\275\343\250\001>\307\202\351<\204W\254=\252`#\274\323\320\227=@1@\276\323\031+\275\033\3227\275\343(\305\274\326Y\213\275\\\n\345=\215\024\017\275B\261Z<\247\306\363\2751\004P;\353Y&<xt@<\262T\037=\211\216,>}\004\303\275\205\273\210=\273\314\020>\302:\025\276\216g\342=D\022\235\275\312\020.\276\370\366\306=8\364\250=\2550\317\275\347\344\375<\353\022\031\275\263\307*\275I\236\315=[\250\t\276\010\026Z\275\247\002\310\272\377\233\251<\200\205\334\275\344hg\274\234\212p\275}6\013\276\016\307\027=\341\337\340\274\036y\014>y\002\026\276\033\206D\276\274U\217=\250\266\246\275\3758\335:\207\005\326\275\261\026\276\275\240Va>\352\271\013\276fn4>J.\247\274\004|\316\274j\325D;e\256\271\275\225M\351:\226\243T<\347}\362;US\r\276\025\306p=^l\272=\321\240\007=\273\332\270\275\335^\243<2\000\367\275&I\'\275\336z4\275\227\344\205\275\\C\254=\342\253\246<\032\0108>c\023\022\276\250\030\265=\214\313\234<*\"\272\275!&\246=\332\226\202=h\302x\276b\204\234=\304\322\272\273aL\001\276(\232@=[\276\236\273xc\351=z\225\210:\013\007\373\275\212qy=\324\226\253\2740e<=\020\035\221\275\240\357\221<+61\275K<\370\274\364\036R<\345\207\323\275\231\375W\275\312\334\031\276\372\n\221\275 hb;\305m0<\247h\316\275:\252\211=}LE\2766\225\362\275\0052=\275\002\013\032\275q\220!\275\344\352H=\230j\333\274\230H\345\274\311NX\276\366\246\314=\022\327\035=7\334\223<pyS\276\014;x<}\010\316<\0050\014\275\305m\376=x4\255;/%;\276\372(\014\275T\\[\275\033\t\300\274\002*\227\276\210\313Y\276\252A\254:|\224\306=Y\314n=\321\250~\275\220\037o=\027\375\320<\372\031Z=\321\343\212=Z_\243\275E\313\335\275\031\274\334<\024ah>D\367\267\274l \376=(\305\307=\007\253}\275>\334,>\264\0072\276p\346\2179\227\307\235\275\216]0\276qX\263\275\t\353\306\274\036\264o\276\265\344\363\274\235\267\344=\325W\030\276\034o)>~\323\232=\010f\005\275\234\375\364=\242\237\036\276\246\341$>\306p\000\276q\022\272={-*>\355\022\004\276\n\034#>7\225\n=x\241,=\210\265\310;\r4\024>hoV\275A\205d\276pF\240\275\n\206\034\276\201\255k\275\013\032o\275\014i\264\274\262\013\205\274\335r\361\275\221\2340\276~\2707\2758|\225\275x\243\370\274\213\346S=@O\232=y)\020>J\213\266=s\217\255\275\023\353?\276\325\215(=l)\214\275\016)\002>\322\213\307\274\213\221.>\007B\277\275m\212W\275\316\033\022>+K6\276\200\315\260\275+I\032\276\311\375\n<N\242\t\276\374\332G\275\235\333s\276l\345\316\275\310\350\234\275/\007\273\275DMJ\274wd\027\276{\206t\275]\000]=\274\261Z>\277kP=K{\225=J\240~=\'e\302<\250\342\032=r\021\264<\200<\242\275\205\234K\275Be\214\276\361\375\210=BN\020>\n\244m=\241\352\271\274\036*\231\275\205\0213=C\340\267\274\342\rU\275\322\214J\274\324\2467\275G\236\027\276\360Y\000>\230v.>\242l<\275]*\013\275\370\330\360<\235\260A<\010\'k=\332\317j\276\263\373(>?J\355;\247-\034\275\007\353\312=E\312\277=)\020\315<\304\020]\275\327\322\034\275\241@\245=\331\325s=R<\000=\354\341\245\274[i\217=\335!\265\275m\216\013>\031\276\336<\2253\275\275\263\245+\275g\273L>\373\321\233\273\323\261\257=\355\352\177=\274\234\200\273.y+\272\234\262\221\275\034x\240\2754C\207<\304\230\">\262f\353=|\306\022=\007\034\367=C\330\276\274f \003\276\346\253\034>v|\354=/\027\335\274\255=)\276\300\325{\275\024_\224<\220\035\212=\336b\300\275\227=%>\330\220\265=\'\004a=\273\346\352=\257p6=\352\224\237\276\304\325\265=S\322\302=\324\013\231=Y)\231=\342\356\n\276a\356\225=\352m/=\341M\210=\272\177S=;E\312\275\264\363\331;\303\257\276<_\227\204=\216\364\325=\242\245\340</(\313<\026\335\357\275\rQ\007>\021\306O\276?t\370\275:~\026\276\271\341\360\275,\221\323;D!8\274\225\3206>\272\n\267\273[n\236\275\237\313R>i\261\001>\351\234\177=X)\236=\342\345\330=\000s\030;c+\361=%\016\t\276\2048\216=\023AJ=\0166~=2\010z=\004\231I=\007_&>\247\274Q\2761\246\027=\345\263+\275%i.=\246\017\307=D\356}\274\007D\371\275\346\316q\275\224T\016>o=\317<~E;>O5\\=OJ\241;\375\211\265\273T\007\241\275\024\3172=-\244\360<\231\263\000\275\202/\025\275\237e\231;\277\207\037\275k\321F\274\301\322\200\274x\365Q\276\350\247\264\275\265f\022>\252) >\337\3543>n\351\226\275y>d\276\2752\330=Z\350W=\225\226r\272\03726=\023\307T\276\2708?\275\271\236 >\333\237y=\347\216P\275\312=\032=\374\203\377\275\0003\310=g\006\211\274k\305\254<`g\314=\275\006q=6\016\354;2\177\333<q\322\313=\030t2=\036\215\341\275\237\177H\275\241,\336\274\235\226\177\276\315\273\337=\357~\256\275fx \274a\027\030\275\3236\005=\200\365\276\275Y\303h\275\217\301\266=\365\222\\\275p\257\345\275`z\320\275\306\374\266\275\230W\034=;\037\230\275[\034:<\302Uf=\242\252U\273\003\336\320<\246Io=oS\037\276\313gD\275\201xP=XU.\2758\242Y\273\364\327?=\375D\004>\021(\016>@\346\022\274\025\027\255=\360\234\037\276\314\372\251\275\352D\326=I\241\254=\001\255\241=\026\002\337\2750;\244<t\t\177=\010\363R=\361\252\225\275A>\001\276\273n1\275<\350-\276\372\254\005\275i\206\002>\267\236=>@L6>\232\tx=i/\307=\020\302\000=\256\253\306=\202z\026=Z\217\010;TC\004\275\250\347\203=:w\212\276\335\340\337=\364\312\275=\030\3014=\271\326Y\275\267\301\031\273\177\"\250=\272\036\037> \005R<\374\322\315=\265\222\205=\227\0208>- \365<\010\350\265\274&\"\275=>\255\266\275\252\023\2379\004\"\271<\313\241I>e<\037>\262v)>\302S\221\274\204\2358=\262\246\033<\235\243#>\214\210\372=\304y\022=\371Q\344=\363\330\354;V\253E<Uw\021\276\211N\031\276D\311;\276\266\211\200=\302\027\027\276\212\265\327\275=\301\023\276\364\243\224\275`\314t\273P\274F=\335\014\340\275g\2337\275U-b\276\262\331\"=\207\033,>\353\367\241\275\375\020\270<\361\2320<\215\216\320<t\266\031>\223\346\235\273&\r\024=\331\204\203=\245\013f\276F\342^\273\212\234\217=\330\005\330\274Z\025T=\242e\032\275U\'\277=)\340\272\275\365\230\021\276\257\346C>\\IZ>\211\2733\275\302\022\004>?\253\247=\236\312\222\274\370\222y=\323\272I\276\242c \276\252\235\364\275`\324,>3\"\312\275\312\027\340=\342\316/\276\211\316\352\274a\027\262=\234\323r\2758\341w=Yc^\275\241#\231\275p\241\354<X\277k<1G\313</\014\030=\323+\206\275\2725\240\275CE\216\274\031\300\r>O\247\021=l\3340>\317\210K=\022\264\236\275\340\250O\276\264_a\275\216j\200\275k\350\321\275\245\030\234\275J\237\275=&\246d=a\3417=\357\205\017\275\311\350]\275+I9\275O\255\271=xY\212=\250F\r\276oP\"=R\366\200\273\200\200#\276\371\224\237=l+Y\275\306\373\365\274\360\2601\276\020K\t\276\303%o=\324(\333=\344\363\226\275K(\335\275a\322\216\273U\364\252;?\277&\276|\363\314=\347\266\374\273\245\261(>\267\316\222=>\014\224\275\366\303\005>\217\243%\275}\211a=\213u\240=\032\027\003\275CwL\276\355\311|\275j\255}\273\030\265\310=\014\247>\276\334\226\227<E\270\277\2748\312D\276\241\337\030=\316\300Q\276\365\347\317<u\322<\275\217\272\020\276\333\256\207=h\002&\273}\314\221=vAS=\267\217\026>4\211\212<!\370w\275\265#|\274\034M\311\275/j\030<w\254\356=\022\021\324<$\304\235<#\n\336\275\357\227\'\2762\273R>\331\311\013\274\241\263\030>\267x\000\2745\235\225\275:>B>E\"\021;K\326F\275(\307\016<8#D=\215%\272\275@\272\032\276* \360\275\347\024\003\276\262\344\014=6\350\235\274\253D!>\313\"\014\276\243}\375\274l\177\270=\032\366\245\274\241n\333\275\272\343+\275\204\271\226\273L\313#\276\305\211\320=\312\275\307=\232\227\337=C \235\274\335\247i<c*j=,\037\014\276\376]\346\274\243j~\275D\006s\276\350\316\244\2754x\004\276X\356\"\276Q\365\300<\253\374W=\201\241\014\276\nX\332\275$%\322<\330\004\247=\355\206\024>/\216=\276\336\366(>!\r\030\275\020\310:\275y\227\350=\367<%\276\312\347)\276oT\242\275\217<\t=\243\337\006\276\351\372\222<\272\370\226\275\216\255\254=\210\377\026<lt:\276Y\330\007>\'\312\300=D0\031\276\351\244\202=(\311\207=\264\022C>\235\203\327\275\353\325T\275A\335+>{\246\023>\252W\221=\331\317w=0Mx=q\036\345=\204Yp\275r\335J=\013\250e\275}\006a<N\337\r\275N\276A\274R\036\273=\322\375\033\276\006)\017>\212j\r==\n\016\276>\n\260\275\245\315\006\276\025\241\215;0\336\207\275\310\345\310=\316\273\245=\347s\233<\356>\203\275\214\023\\=\206\351\343=\016\210\306=\354\354\230\275f1T\276\017r\207\275\255\302\374\275\205\274\307<A\253\013\276h\233\007<\025\364\350\275\252\2612>^P>=_\355v=\024v\225=\347(\234\274;\330\354\275D$\276\275\326\307\357=J\224d\275\214\036\225\2758\003O<\221:\014>\3037\300=\033\305M\275\224+)>\006p\003<>:\016<\320\005\013\276h\257\313\275\301\206W\275\267\362H==\260=\276\257\354z=\311U\350=\350\357\305\275,0o=V\256\215\275\315\022\005>[X\232\275\333\210\262\275\311\301\343\275\363Q\200<\346\233/\275~`\315\275\206\025\203="
      }
    }
  }
}
node {
  name: "heatmaps/firstConv/Variable/read"
  op: "Identity"
  input: "heatmaps/firstConv/Variable"
  attr {
    key: "T"
    value {
      type: DT_FLOAT
    }
  }
  attr {
    key: "_class"
    value {
      list {
        s: "loc:@heatmaps/firstConv/Variable"
      }
    }
  }
}
node {
  name: "heatmaps/firstConv/Conv2D"
  op: "Conv2D"
  input: "heatmaps/reshape/Reshape"
  input: "heatmaps/firstConv/Variable/read"
  attr {
    key: "T"
    value {
      type: DT_FLOAT
    }
  }
  attr {
    key: "data_format"
    value {
      s: "NHWC"
    }
  }
  attr {
    key: "dilations"
    value {
      list {
        i: 1
        i: 1
        i: 1
        i: 1
      }
    }
  }
  attr {
    key: "padding"
    value {
      s: "SAME"
    }
  }
  attr {
    key: "strides"
    value {
      list {
        i: 1
        i: 1
        i: 1
        i: 1
      }
    }
  }
  attr {
    key: "use_cudnn_on_gpu"
    value {
      b: true
    }
  }
}
node {
  name: "heatmaps/firstConv/Relu"
  op: "Relu"
  input: "heatmaps/firstConv/Conv2D"
  attr {
    key: "T"
    value {
      type: DT_FLOAT
    }
  }
}
node {
  name: "heatmaps/firstPool/MaxPool"
  op: "MaxPool"
  input: "heatmaps/firstConv/Relu"
  attr {
    key: "T"
    value {
      type: DT_FLOAT
    }
  }
  attr {
    key: "data_format"
    value {
      s: "NHWC"
    }
  }
  attr {
    key: "ksize"
    value {
      list {
        i: 1
        i: 4
        i: 4
        i: 1
      }
    }
  }
  attr {
    key: "padding"
    value {
      s: "SAME"
    }
  }
  attr {
    key: "strides"
    value {
      list {
        i: 1
        i: 4
        i: 4
        i: 1
      }
    }
  }
}
node {
  name: "heatmaps/secondConv/Variable"
  op: "Const"
  attr {
    key: "dtype"
    value {
      type: DT_FLOAT
    }
  }
  attr {
    key: "value"
    value {
      tensor {
        dtype: DT_FLOAT
        tensor_shape {
          dim {
            size: 5
          }
          dim {
            size: 5
          }
          dim {
            size: 32
          }
          dim {
            size: 64
          }
        }
        tensor_content: "Wi\016>\223\252\337\275\262\345\014\276\211\214\036\275vt\370\275K1\342\275n+\317=\337\303\266<2<t\275\335r^=\372].<\350~\214\274\362\'\332\275h\035\377\275v+\014\276\315g\243=R\361\255\275\261W\251=\350u\323=qW\363=\240^)\275\371\267C<\373\310\017\276\227\005\036\276\370\347\221\275?\003\t\275#P/\276\rT\222=\257\263\212\274B\362\203\275\214L\242<4\322\275\275S\024\202=\376)r=5\255F\275+\"\200=\327X\346=\022\t\274=Qd\221=hz6>;p\204<\204\335\240\2755\325\363\275\3321\021=d\3504\276\313\355\002\276\366,6\275\333\245\243=\366\377\0038r\250\302=n\245\006\276\215A\247<\345\344\313<\324\230t\276\210\232\200\276\310v\211\275\234\317\'\275q\304\237\275\000`\232\275\224\224\237=\320\223\010\276 y%=\241\257\267=\312\340@\276\255S.\276*\246j\276i\032\267\275\032G\211\276\242z\242<\3756\300\275.\347\272=\243-\277\275\240d@\275S\357@\276a\353*\276\'\005\240\276Jy\027=\023\276\375\2758\265^\276w\001\324\275b{\342=K\221\224\274\360\006\r\276\225X2>\244\3636\274\035\037\t>\357s\200<\346*A\276c\242\237\275S\356s\276Z\366\376=\246\312\214\274\331\231L>\\\371\370=\355\3519\276\t\320\270=6\201\027\276)\377\303\275\351\210\357\275t\273\017\276r\022.\275]5\301;;\362\242\275\365\2117=\307z\214=3 \370<\226=\022\276\034\236D\274j:\022\276\244\376\256\273x\264\031\276>\242\030\276\301\255\032\276\311\034!\276\210\345o\275\364V\036=\376\013\323\273\355\023q\276S6:\276?\213n\276NS\352\275\206\352w\276\026e\315\275\203:\233\275\374\025Q\275[Ds\275\231\346O\2764U\226\276\035(\236\275\313\355p\275o\267\227=\237-\'\271\377\037%\274W\207\255<\3014H\275\007\371*=\3778\025\274\267\337C>0\345\033=\216\355\027\276\264!\224\2744\320\320={\210\t>\353WC\275\325\237-\275\337\356\003=\326\032\210=\251FS=\350*\312=\177\006\270\273\177$\233=\276^\357\275\240lJ>\033\253\004<\022\313\245=`J\315\275La\221\275\217w\034\275V\177:\275+\365G>\324\305\033>\210\373\346\274\347\033\002=\035\\\203=\367\355\001>g\363\336=\027\235s>\321\223:=\251I\221\275\347lN>gR\002\275\310H\000>Ta\353=\2622\244\2757\353\"=\247$\200>\224P\222<\350J\234\275\236\226\201=\303\030\005\275\204[Q>J\364\356=\305\014\006\275\310\324\263\275\364gE\276\\\353\031=\"\3723=\377\267 =\3011Y>4\nb\275\202\371`;ks\202\276Qw\334\2745\346\034\276\340\253%=t\310\231\276\351>f\275M\327\316\275s}o>%\025\007\275\032\310\001\275\351\330q\275\217\004\\\276\306\021\223=\304\2732=QE\335\275\017\371\355=\245\033\\\276c\250\001=(\233\031=\002x\212\275\335\277\207>\332\265\n\275\373\317\330=\021l\303\275\342\221\203\276\215@\021=7?<=\355~\320\275=\303\325\275z<\265=y\330\007=\221\220}\275\'\020\365;\256\367\300\274rz\030>0\007A<\314\027;\276b\033\213\274\305\226f\275\210\302W\275\004\337k\276\270\323;=\306\212x\275N\273&\276S\014\320\275\333\370\302\275\236_\343\275\032\202%\276S\341\211\2764\342\023=$\3678=\256\236\336\275\366e\326\274(5\303\275\340\213\277\275\302]\344\275]\003\031\276q\370\257\275\347\325\200\273\335\210\246\275\r\347\\\276\245\313\204\2767\022+\275Mp\343\275T\n\007\276\341\220\223\27556\326<\272>\033=\344s\313\275\323U+\2764\262S=\206d^=e>\274=\003\206b=\324\005\030\273\026x\201>\315~\306\274\277\326(=\301/\006\276\376\236\262\274\237\325\244\275\273o\322\275Y>\356\2753\315b\275\224\230\251\275\360\316\340\274S?\364\275\323\263\312<b\010O=\203N\010>\312\313\300\2752\347\004>#A=\275/\3202\275\177\256\271\273\256\016\252=wI\340=\360\247`=\250>\305<\034A\030>/\3273>\337U\031\276q[\237=\013G\216=\211{\024=\303*\247=&r\207=\027\364\017>\315\006]=\310q\312=n;A\274\204\366)\2764Iz=\227a\030>\341\202%\276\353\r\367\274\022J\036>\364\010\337\275\327\341\001\276\360\316\315\275\250U:=-{\373<\017u~<\202\216\217=0\272\214=F\014\353=\360\226\003\276(\344\034\275\206s\306\275\223\241\330\275\355$\257\275\361/l=\016\357\010\276\245\354\224\275\230\371\032\276\317\311\017>\330L\346<\332\254y\275Z\351\210=Wr\310\275\354v\001\276\202+Y=\016\'\227<\241\270e\276\212\203\243\2752U\333=1\350^\274\264\271\346\275\"\223\200\275\334;\204\276\270\363r\275\032\344\214;\374\222j<\206!\366\275\232\215y\276\231\221&\276`\352\002\276\340\225\217=\376\2629\276\202u\n\276c\003\364=\361\277\247<l\234\036\275e\225\234=;E\320\275\"#3=\030\364!\275d\034!=\356\372x<6\030\341<Z},>\310\317E\276,/\252=\375L\320=%\201\031>\345\001\244<M\240H\276\347]1\275\271\330\272=\326\324\235=\275\350\026<\022\t\016\276\366\257*\276\372l\003\276\246E\270\272\363 :=o\347\007>\004\246\227\275G\241n\275!\232\204=\372\312\306=\335\262\003\276V\300l\276V\203\002\276Qi\326\275=n7\276\000\371\206\275\306\306\326\275~\217\236\274\211q0\275\276\001\265\274\304\220\016\275\n\233\236=\231\203R\276\243\276\255=n\261\233\275\023\226\210<\254k\020>\323\337\n>|{\261=\r\300}=\217\224\223\275}\222\010\276pD0\273\322\266\355\273\022\335=\275%\"F<\005.e=\265!H=\355\224)\276\306\320\254=3p\253=-\263\203\275?\263\350=\251!%>\232\203J<\313\323\r>R\265\263\275U\221\223\275&\262\204=-\031\265<\356\360\237\274J\204U=\260\355.<\030X\364<gF*\276$\305\300\275\0005\177\274p\340\014\276#u\346\275W\271\010\276\n\0254>\177\301->8\003\307<N\213B<\3725\342\275\032\203\311=<\315\330\275\271\374\333\274Egs\276\033\334\245=\317y\241\275\361\255#\2758\201:=?\340\271=\320W\325\2745\204H\2760q\033\275\255\030\363\275\225\353\267<\263\023\353\275\241\346{\275m\221(>w\3031\274\364&\347<\003f\231\275\212\271\002\273\202 S>\251\t\262\275\263\226\013\276\266\270\241\275\212}\0039\032`\207\275\n\224\321;\336\273L\276?aY\274\237\035\332=\331\177\237\276\325\321\243<\302\230\035>\355:\377=Y\240\311\275\316\272\204=\200\355\004>[=\263=\215,\253=\200\264\202\275\357\233\220\275C\351\212\275\244F/=\305\336\251\2756\344\336=\267\034\005>\332^\023\2764\327Z\275t\307\304\275x\3327\276\351\216H>\212\261\267=A~`=\375\244\321\275$n\001\275\327\2417<_\322\016\276\205\032l\276<\360\216\275I\n\034>\245\007\262=\213y/\276$\267%>N0\017\276\253\274\'\275\276\2413>E>\224\275i\035\320;\036\226\031\276C\206\325=ni\312;>\353\256=\350\231^\275\350\022\237=\033\366=\272\027\213\025\276\013E\356=\264m*<\343\r\335=e\261X=\244\322\372\274&\266X:\243\356\202\274\372\364U>=\213\333\275\276\326\224</\236\3529#@\213\275\204\237\023=\225\'\357\275\206\332\333\275\364\234\014;{l:\275$\277\025=\220\025\215<e\202\'\276\236\247\004\274\031\376\362=\023\305\037\274\224\365\245<h\363\251<!`f>\312\222&\275\373\034#\276\361\344\232\274F\231o\275\240X\362\275\355\346\374=S\211\277= /\006>\233\2736>\016iP>\201\221\307\271\357\247E\274\313\302\312\274\224\307\367\274\367\353\360=\347VG=$\025\025>\331\005\r\276\215W\337=\342i.\275^y5>s\307X\276}\276\263\275W\314\222=\310A#\275\317V%=_\277u=\272\252\002\276\3644\000\275\300\373\003>\353\336\206=\035\360\022=Q*g=\226z\266=\351\247\202\275\255\235\267\274\003;S=\351\022J;\256\032\274\275\276\212\025>\244\004(\276\025y\016>%#k\275\330$\270=\340\322\226=\203\327\200=\225\364\203=\202\260\377<\201p\202<\004\000\322=\232\263\007>v,\223\274:+\260\274\037zJ\276\230d\304<\321\324\341\274>#\274=\255\232\027\275}\034\312=\003\030\314=\331@\010>w\234\345=8z\244\275\246\241\202\275\276\264\237\275%\033%=\361\346\357=\2149\024\275\032\213\200\2758T\341\275\210\236\001>\207\211^\275\027\233\017\275\311\177Y\274\311\006\034>\375j\302;\300\203\361=\003\274\314\275E\0235\275\221H[>\315+g={\366\226\273\214\235Z>8\324_\274\322\301\302<XZ\266=\033\3131\276\367\331\236\275\232\311l=\330\320\252\275\334\272\332\275\221\314\327\274\265\324\224=\004x\200\275Y\020j<\356\366\032\273\351\257\232\275M\367\223=)\262\265=\322\251\272\276K\257\246\273\252\260$=\322$\025>[%\376\272y\007\036\276\253\2622>\313\366\242=#\360\203\275\216#\275=\003\240\210\275\276\370Q>lH\227<r\325\022\274y\2656=\377xf\275\330\266O\275LB5\276\177\342\307\275\3039\301<\323\310\013\276\237\0227\276\210\024\344\273\321\277\217\273M\302\260\275_P+>r4\275<\300i\351<\262G\225=/\355\013\275\004U\014\276o\370\240\275\313\006\355=\251\3640>k\025\016>)\341\246=K\252\346<\013`\033\275\270z]=\203p\310=A\336\244\275\3646\232\2752\367`=\271\\\250=\013\333\256\274\001\346\237=\275\321\363\275Y\030\020>\273\264\270\275a\227\314<\022d$>\001@0\275\251\244!==\300k\273\336\320\307\274~4\243\275\222\235\352\275\300\325\272=%j\033>\334\362\277\275#\253\024>f\222\276<G<\031>\345\305\367\2748_\037<\362\272\253\275PA@=\264\217\244=\\\270\337<\233\243\267\275\376\036;>N\302|<\014u\005>x\'\232<\323\3175<S9\222\272\350\212\264=\332\310\216\275\376\366\222=\232\254\242=\317\333\r=\021\300n\276\232JZ\276Z\214\224\273\177\007\210\275\370\202\"\2764\250\200\276c\213\312<\345S\211=q\026\203\274\2316\301;\245\005\372\274\220\276\002\273\372\305\325\274n(\232=\250\007n\275<\327\235<\251\377G>\025\006W\274\327\016\336;cqf>\251\257\217\275-\241\361\275,\272\232\275\211\262\310\275\033gg\276H\024\030>Z\343\361=OF\233;b\272&>\030\004%\2757<:\2750\317u=A_\022\275UU\302=\335c/=\\\365l=^l\236=\241\251|<\034$\320\275\026\355\177=B\322\031\276067>\224\tm=\013\016\255\274L\305\253=\203D8\274V\304\377\274|\037\350\275\333Lp=\271\352\213\2756\344\021\275\"^\030<\315\001\352\275\031y\020\276\211\3056=5Z\027\275\362\360@\275\210\337\245\275\350}\200\275\316\177$\275\237\210\325=\364\034O\274g\310\361=\372\020\263:\231\010-\2761\255R\274\307\327\006\274S\366O<\354\274(\275\357\026\264=\253}\216=\224KF\275s)\032\275d\026\n\276\000nP\275\363\336?\276\016pz\275BO6\274*\226\312\275\302\332\277\274A\301\262=\214\252\251\275\210w\340=3J\323\275_\303\352\274\"\315\361\274\035\177(\276\262\336Q\275\224\004c\274\031\230\207\275\000\260w=\317I\014=\365\3029\276\301\274\224\275\303\227\221=f,\307=\243\372F=\351\001M\276\364\003\n\275\316\376\203\275\354\t\244=\311\261\261=F\2569\276\333\324\264\275\352\270j<\302\270\301=\035\317(>\322\007\372\275\245\0200=\023\274\341\275iyE=\025c.\276\371[P=\002P\226<T-\233\275)\214\006\275\233\272\360\274\212\177\362=.\027\305\275`\332\366\275:\340\005\276\021\351\003=H[_\275K\356\352<\363\327\212=\020\204\2169\013]a\275oay<\"\312S\275%l\201=v\241\311\27548\032\276\014\003w\275\213\237\020\276\247\016\024=\207)\220=1\206\231=!\203\030>h.\367\274W\3670<g\370\377\275\037\346\033>E\024\231\275\371\262\252=(\212l\275\2232\270<cb\370\275+;\220=\235\376\026=\030,\n\276\311\252B=\311\223\036>\306\215\332\275U\203\337<F\220\276\275\372DC=\244\253f=\2711\301\2750\244\253<\365I1>\017\360}\273\266Wx\276\332o\274\275\217\261\033\2762;7\273\035\213\216=\236\236$>y\\\346=\357\203\375=A\321\325:\330\263\212=\252\367\004>D\'\205=\331q\274\273\034\360V\275\317\312H\275\363i[\276\271\216\364\275\340\237\030=_(\302=O\350\317\2750A[<\366\226\343\275\277\330K=\315aU\275\275\317|\275\020\323q><\220]\275\326\013\301\273q\327\251\275k\237\221\275$\340\'\276\366\242\000\275^\366Z\276\327T)>w&1\275\232\231\027\276\220\013\203=\223\354\242\2757m\276=\370(\313=\211\241\001=\321\307\t\275_p\371\275&\3206=\207t/>k\276\242=\n\177\014=\002\264R\275I~\251\275\227\376d\274>t8>\202\273\033\275\216\216\026\276\316o\276\275\356\240)=S\325\256\275\335\254r=q\356\316\275\316V\002>:\273\013>k`y\275A\\?\275P\035\237\275\215\370\320<!\366\003\276\343\206\014\275\266\266\020>\006\177]=wo\004\276\0206\016=+3\373<\211t\355=\0258R>_\023 \276Lfa=\363\025\025=\340\345\320\273]\222_\275%\000\334<\002\362\006\276\365u\225=g\324\206=\0365\035\2733\353\301\275t\352\366\275\034\311\371<\376\212\014\276\253g\002\273k`?\275\27396=\260\2360<\300b\241;\237\314\203=\036\273L\276\246\240\223\275d\263\241\275\344\354\340;}\342\202=o\251\203\274!F\270=\245\036\030>\361\307[\276\242\024\021>\274>\364\274r\001\336<\222y\254=\265&c\275A\220\013>\2469\322=0#d=jSY=\\\304G\276i5\304\275d@;\275\344\347D\275\200\227\370<\033\315N\274\321g\250\275ms\003\275i\001\234\276\332\340\272\274\205Il\275\364tV\274\276\252\377=\361\261\363\274;\027V\275\033\306\246:\347\027\250\275\245bL\275\255\2673=\010\022\"\276%\272*\275\333\0356\276\235M_\276\330\037+\275\254\311\265;o\346\370=\357?\267\275z\355\030>}\344\262\272\351 \214\275\222\325\261\275Q\344J>\340\261\363\274h\036\023\276[}(\276\022/*\275c\272\013\276\261T\360<\272\275V=R,\016=\265\030\264\2734\021\303\275\370~\242\274\205\250i=\360\000\266\273\305\225C>?~%\276\251\220\245\275u\217l=\243\036T\274\371\307\207\274\324\330\016>\350\233(=\256\"\377=\215L\312\275\0021\014<\247Y3<\333\343\235\273\002\216i=\177eh\275@\270<>fL\200\275\337zc=CC\216\275]\315\304\275\226\232\337=F\007-\276\255\035\201\273\274>\344=\257\222o\275d\260R\275\332 \223=\220\301\311\274h\"\367=W\346Q\276\303\210\347\275\333\220\276\274\235\277\201\275\372\024\335=\250ho\276~y\001\276UM\311\274p\331\374\274\275pH\273/j\030>&;m\275\017\377\331\275\222\376\n>\237C`\276\247\241\200<\231\244\255\275\306(\266\275\271\365y=\020\3064\276\017\216\277\275W\305\364\275]\372\323\275\307\331\233\275\236\260\346=V>>>tW\177\276\036\357\005\276\010\2472;Q\201\341<\025!\001\275@\255\013>\300\370\267=\003\324\223\275\213\323\223<;\351D\276C\271\211\275\\\243\201<\332\257G=\266;\014\276\362^\264\275\355C\346<\271\323\322=a\t\361\275\346\303\265=-\344\272\275z\273\251\273\241t\256\275n\365\326\275\377\207\350\275C\266(\2762\223\236\275[\316\210\275J\327\264<XH\241=U\262p=\243\'\321\275\35354=\377\347\235=>\344,>O\211\255\275\250\270\036>2\034\363=\267\371\252\273]\007\004>\215\356\354=\306\232L\275_(\017=\006\316\006\276\013\232&>_\342\031\276\320\352@\275\237\232\204=\262e\341:[\333\331\274\r\274\240=\241\345\014\276b=\2149x\223\230=\3005\373\274\000/\365\275T\233\223=o\236\216\272\004\301\232=\005\217a\275\241d\254\276\030\'F\275\245\363\320\275!\302\024\276\260\216\010\276\000e[=c\211\267=\275\252f<\223\231\277\275\260\335\235=\035\221\236<\013\375\013\276\320\342F\276\2110O\276`\353\016=\033\356w\275\360\247\266\274q\354\315\275\220\242d=\030^\232\275i\264\002\276\235\357\252\275\tV\302<C\016\013>\022t\274\275\361\030\225\275Hg0\276\004V\244<\001\266)=\332\364\2439\006l;>\213\031\213\276O]U>\262\'\231<\335\263\037>\3014\036\275\342\230\215<&Y5\276\301|/\276+R\253\275\341~\327<!9\252=\220D\307=D\016\212\275\344\205\266\275Y \357\275R\300\365\273\260\254\334\274^\313\212\275\246\313\333\274k\313\202\275\241}7\275$\373\211\275:vR<\351\341\351\275\037S\037\276h\271\222\274\230\232x=+\376\267<\276\003\270\2756_+=#\004\'>!\017\204=\345s\023\275\372\210[\276^\212\022\276\3249\217\275\025AS\276@(\273\275\001\354\r\276\024\324\365<V\331\272\274_\007\326\275W\022\210\275P\234\270\274n\036\345\275z\006\177\276\242N.\275\330\025\"\276v(\223\275(t\250\275W\024\375=\206%\302=d\242\355\275\025\036!>XK\351\275\253\220@>\262\246\335\275\342\225\315\274\310\231;\273\245F\007=C\010\025>\025\315\005\275\323A\251<o*\327\275\222)\034\274hc#>\026K\334\275\014yG>1\324\320\275`\327\017\275:\034q\276\242\345\027\276\3078J\276\0167\213=\250\316{=\0359@\276t\365$\275\n\332\227\275\360\351d\275wF0>c\255)\275NW\350\275\211d\346\275\366\270\004\276\367d=\276\347\303\346\275l~\'\274R@]\276V\251\025\275\357\323u;H\247\311\275W[\344\275J\221D\276\211\000c=\261C4:\227D\004\276\362\353\210\276\364\240\201\276\230\377\373=_\266\275\275\316\333\223=#\266m\274\"\354s\274+\030_\276\302\026\001\275GVN=L\200$=\354c@\276\223\204\247>w\203\233=\346^r\275P2\021\275z\364\003\276\263\341n\275\226\216\373=p\361\356=B\343I=\325\336\305\274\275W\341=\262\027\230=\004\317\207\275\035\007H\276C\350\024\276\226\361\n\276Cm\317\276\200\216\361\275\006\214\254=\267\016>>U)}\275\273\313O>\327>-\275\234\251Y>\201\036\247\275+\301o\276\363T9\275\306\346\271=\263\334\355\275T<\006=/\370\375=5\301\355\275\036\337\322\272\360\271\223\276\264\302I>\000\237\262\276\274\307o\275\003\353\340=\332\301\226\275\217u\224=\271\036\243=\241~9\276\345_\246\275O\016\224\276;H)>\225\371\t\275\217\025g=\0355\340\275\362>\343\275=\264?\276\246\267\272=h0\377\274y\267w\275\330\212x=+/\275\275\231 \320\274\210\360\224\274\241W\016<H\345\223\276}h0=3\237\">\337\257^\275\236ts=\364\'\273={2\315\275@\377\210\275n\032\252=\213\311`=\234H\276\274s*\214\275\"q\261\274\313\360\217\275\010n\036=\220q[\275\263t\257\275\2419%>\025\202\000\276\331\260\270=\235\224\256<`#\035\276\'f\256\274\240\026\352<\265\021\022>`\255\014>\314|6\274\224`\301=\0274\r<t\014\236=\375\325\303=\037%1>\230\004\270\275R<\216\275m\363!=\224\030\203\275\014\3440\276\306F\234<\026\234\276\274\334;\247=\210{}=Ss\003>]\236\265:*\223\307\275Q\250G\275F\225\322\274\025\017\330\275!\202\224\275%\031\205\275y\273\332<\264\272\253\275\031)\344\275V\253k\274\000P\340\275W\364\251\275HD\317\274~}\333\274\021.\010\275s\014\203\275\352\220\200\275\321T\200\276\361x\354\275G\271\250=\225\010\001\276\262\207\262\275\027\240\323\275zj?\274\361)\360=\361\252\021\275\220\325\373<7\226\337\275\226\022\250\275\354\300-\275\350\222\252\275ab\312=UGA<V\347\020>aHG=q\034\\\275tc\201\275T\227;\276F!\331<\021/\202<U\017\264\275!\232K\275#\250*\276\274\370\264=\375\223\346=\002\353@>\016\242\t>HI\002\276\215\266\356\271\230X\377\275Zk\273<Q\323\024\276\2241b\274\206\001\255\2755\025\231\275\375\244\037\274\'DR\276\325\374\251\274\340L\'=AA\032<\255\263\016\275\026!i=\235\004\005>D\235>\276\2677\311\275\346\336\002\276\355B\304\274\000@P\276\375j\273\275R\376\255<\221\373\315\275\204\202\356\273\354@O\272\3472<\276\021\331\375=zF\212\276/\223\326\275i\016X\275\035\007o=G@L\276\204z\\\276\323nN\275\246O\202\275\266\226\350=z\031->m[\333;\344\222\020\276\240\204\206\275\360\217\n>e@\256=g\014\316\275\336\251I\276!\313\304;C\031\233\275\361\033k\275\300,\315\275\374j\304\275\303^:\276\224>R\275];U=\217\334\271\275\234\337\320\274\352\207\r<%Um<\234\374\342=\n4\302\274\232\271\002\275f\341\247\275\276u\354\275\255XB>\200\211\253=\332\276\273\275O\017\347=g\311\375\275\265\367h\275\325G\304\275\024i\275=\301g\364<\033\222\007>qKU>~\0327=\231Ri\276\277\217\220\275\020\274f>\r\232\233<__\240\275Yq\016\275\265p\211=+\252\220=\213\326\330=\257D\\\276\001\311\345=D\224\216=ya\006\276 &\031=\024\271E\276nI\317=\251\315:>G\353\005>\262\327\257\275\254B\246=g\266\202\275S\221\016\275c2n\275t\372\t\276\317]\032>\201\020w=\226\017\355=\215\322\225<\326\013\020\274l\307\250=\357\277v<\2474\002\274\353\227\006\276\033\205\006>\017\377\220\274-\223\255=\020\251\232=\266\0144>O!\017>{3\234\275;p\251\275e\345D<\255y\002\275\253\233`\275l\251\221=\246\\\250\275c\215\026>\350\027\033\275\016|\327\275\r\033\n\276Z\203\000=\260\233\225:\251\300\221=\336\000\220=1E\363\275\315L\026=\016\353\226\275\216\233/>\025\303Q<\362\212x<\366\347\210\275\306\334\027\276\026@\241\275mR\232\2757\276\325\275\314-\340=\206\342H=YZ\000>\242\303,>U\340(\276L\277\277\275\001\367E>qQ\033>\n\217\262=\006\3674>\275s\256\275\336\201\026\275J\333\216\274$+\020=\n\263\212=\014u<\275\252\330#\276\247\2007\276\025\210\352<\272qK<\322E\376=\252\374X=\265\177,\276\226\331==E\317\213\275;\224\231=\302\317\177<21_=\362R\231=\010\332\373\275\231\273\336=\023\271\257=\326\303\243\274\'hB=\007\033\360=o\351\273\274.\303\303=\3013\322=\377\237\330\275H\257\204=u\004\n\275\303\207\n\274\030#\334\275Yu\032\276\202]?\276\317*\316=\210]+>}\217\214\275\261\016\r\274\000\216\203=\203\263\341\275\247\317:\276s\006\347=\236\033\223\274\271~\237\275\255\345\356=6H6>\270V\225<\252\357\021>fHZ=\177[\212\275\373J\204;9\346N>\024v#>([K\275Q\374\250\275\322`\234\272gm\267<\262z\023\276\3026\030\276\226$\262\274?\\\323\275BV\323<Ab\237=\253pa<c\207\017>\2574\226\274\024m\r<\322\377\275=\265q\252=\342d\001\276$\327\343\275J\177\242<\001\314\311:\367D\220=+\022T=g\367\337\275\315A\355\275\343\215\260=\255|\236=\325\027\035>Bv\014\275\037\256R\275y6y\2756>6>\n\264\264\275D\272\251\274\023\350x=\263\206\006:\341\t\323\274\333O\262=\350\301\003=h\021\227\274\277\223:\276\224\321\212={\000\002\276@\366I\276d\322\203\275\264\230K=qz\260=p\204\211=\363W|>QU\027\273\034\335\257=5\325\241\275;\\:>\010\024\257\274\353H\334<\315Xd<1\034\326=\370\212\237<\214M1>rNQ=\004\202Q=@\\\226\274\330\216\200>\340\037\253=B\te\276\315\326l>y\241\260\275Y\310}=U\205\261<\000mm\275\232\315\234=\212\t\335=`\030\300\273\350\313\'\275WB\267=d\010=>\251\314d=\213[\216\275\227\252O\275\236S\234=\017f\236=\016a\235=\203\355\251=\364\305\033=\030h\304=\220\317\266\275\261\002\327\274\371\352\241\275I;\322\274W\306/=s\237n=\310\\[;\242\275\252=d\032*<\007\245\007>\200?\372\275A&\326;\343\265\\=\372\336\224\276\2567\327\275iD\202<\177s\n\275\262\256$\274\027\207\321<\312\246B=Dh;\275B\257\256\275s\t\272\275\252\177\353\274\305\004\002\276B\t\037>\005\361\022=X\000\310=U\221\276\275\361R\005>bD\257\275X\032\377<*r\245=\206\337&\276\306=\252=\252\235\354=I\020\232\275\255U\372\275-\274:=3j\205\274\236\336\220\275#\356\205\275\224\000\324=\353\252\322\274\363\274/\275\"\321`=\010\276\024\275\302RR\276\305\220<>U\022\241\274\322\313\271\275/\214\341\274R\215&\275\023F\017>\273e\367=\036\207\263=\375\347\014\276\353\000g<B6\350<5\3516\276\272w\343=|\231\014= \302$\275;\301\332=\034\362\243\274[\001\345\274\3250\321\274=*\232<I\265x>so\364=\262RF\276\273?\003=i\245\365\2741w\027\274\210\275\\<\354`\342\274\257\0370>\341\213\242\274,w\222=\221\360\023\276\302\310r\275\374\306\024>}\006L<\217\337*\276\275p\r=\363&\261=\360\270E\276=\375\246=\210 \220\275\313 I\274\2238\226<\021\265\007>\326\266);\r\373\313=y\377\246=\221\000\203<\271\251\220=\'YA\275\r\032\221\274\376\243@>\261\000\274\275M\005\342\275\264\234\'=_\"\200=Y\246\234\2743\322\247\275f\320\224<1\356U\276\240\001s=i5\251=@\036*>`2\022=QG\013>\'\024\313\275a\343\231\272q\216\027>j\205!\276\324\302\021\276\016\334$>ibg>[\315:\274\340\321\"\276\273{\214=Z+\315=&\013\317=\316\t\t>\351b\220<\322I\320<\337\351\325;\231\376\276<x-D\276EXN\276\032!\004<\362\327s\273\217\257\244=E\215\001\276z\240\224;\344k\217=\022@\003>U\263\217=2\240\025\275_.\000>\037\\\207\275\237\010\020\276\313\367\277\275\222@\026>q\365\255\275\351T \275P\255\256\275\301\224\365\275\344\206g\274\345\234\334\275\217\360\r>\007q\313\275\230\234F>\216+\256\275\345\207R\275\316\254\216\275\217^\030\275V\327\355;\200L\316==]f\275\217\2755=\235\232\233<j\302#=$\304N\275Sr>=2\331>>\030\007\036\275t*\034>\2624\343=(\350_=\306\266\354=W\337$>(\316V>\235`\246<RG\272=q\310\211=\367P\276\274\326D\207\275\337\205\227=\364U\025\276\373\022\023>\020\035{<\234q/\276\353\363\346\275\364\373K<\230\217E\276\\\365\026\275\342\254\022\276t\306\212=\325\310\231=\\*+<N\274\306\275c\346\224\276\016.<\276\371%\313\275j\376f=,\005)<\277\007,\276\210\t*\274\241\035Q>\325\005\004\276r\331N\2762\244J\275\3420y<\367\220\340=\376\352\001\275\250D\231\275\346\261\347=@b\204\275\ni\213=CH\203<{_\000\276\247\263\256;\304\350Q<\007\353O>k?\274\275\246\240\001\276\333\226A=\032\344\"=:{-=\211N\007\275\022Dr=A\267\\\275\335\324\270\275\201\315\207\275\262\276}=\t\362,=T\356\204<\312G\017>\224\224\205\275\311\260!\276\261u\377;\361\204!\276\034\370K=]\223\235\2728w:\275\214\227\020\275\037)\313\275\212\r\302\275\327\347\323\275\363\376\334\274L\276/\276\367\207\n\276\352\205\377\274\301\002\242\275\320+\277\275lL\031>\211\234L\276\005\323Y\275\327\204\365\275\341?R=sX\\\276k\316\214;A\260\326=\370t\222=A8X<Yb/\276\312\321`\274\016w\003\275\270\021\244\275d\027\227<\343\002\303\275\231\335\327<*\035\021>\0338\310\275\026w\331=\210N2=-\266]>#Y-\276\335\254_\275\216\327s\2769\0227\276\221n\024=\'8j>\334\245\263>\333\021\342\273\373\200S>\235\374B\276zu\323\275Vv\250=/\014\320=\371\311\002>\373_\201\275\220\202\002>\270\2718=a\002\036>\332\004\025\276\323V\362\275\320\245w=\331lV\275m\231\027\276\271Nm=qJ\315\275\326E\371\2748>\224=\370>\232=\214Tl\275\322\300\006>z.\272<\tn\005\276\210\267\036<\204\340\024\275\315\325\225<\324\304\350\274;\017\230\273L<\376;\244\242\n\276rx\001\275\337\217\237<\210\032\026>\336\320\033\276\263\236\375\275\224d\020\274h\301\366\275\225\001m=B\033\203\276.\334S\275\244\016!\271\306\200\327\275\017Q\315\274\314ZL\276P_\177=\347\014l;\270(\341;\325?\342\275\310\270\216=\335\311\334\275\272\253\212<y\223\002\276q\360\323=\027j\224<\014\231;\276\201(\306=#\307!\273\265i\002\275\3032\274=\036\204.\276o\252m\276?\273\r\275F\'\311\275\367x\013>,\037&\274\317\244\357\275S\333\030\276\215\265\r=5\256\254;\\z\247\275$\3245\276\251\367B>\310\266\021>\260l\177\274\013\225\037\276@\034\330\272_S\232\275d5\266\274=Z\r>r\243[=\240\224\317\274s\271u=\226\251\355<\272\361\274=*\340,\276A\034\007\276\332\365Q\275\367-\t\275\203q\336<\256\301\022\275\n+c=\375\267\224\275\350\234\252\275q\223\206<\307\2568>\325M\217=c\224`=\006\365\266\275\"\201\210\276B\031\223\2759\'\234\275\210f\234\275\tg\343:[\264\007\276\352H\220\275\033A\364=\263[\020=\355\024\262<\206\204\211\276\202*\344\275\020\347\002\2763\375G\276.\013\240\275\r%\310<L\242\273\274;\217\272\275\331\264\r\2768X>\274\000\246T=\"N\224\275^aT\276\3533\013=\270>F\276\247\247\024\276\234\374n\274\214\226\361\275r%\353<&\r[>\202[\363\275\312w\261<ShW=\006\r\362<\201\322\305=\211U\"\276\353\357\363\274\303Q\302\275J\310\002>\353J#\275x\374F\276\307!2=\006)\316\275\370\220\016\275. \177\273\313\350\244\275\331D:=\023\344(\276u\361\362=\354\227@\275g\030\006\275m\276\n\275U\237\"\276\354\177;\276\007Pe\276\311\244_=\263\320~\276\252\335\354;ie?\276U\2442\275|\214J\276\315\001H\275\247\322\234\275\347+|\276\2658\332=.\360\006\276\216,\021\2767\210\037\276\\\035_\276\300\240>\276\325w\266\273\252\331T\2768\233\217\276\'h#\275\224\233\003>\244\030\231;\252\242\234;\231\0229>\373\353G>\324\230~>`x\363=>\037\023>\346\237!<\232\201\025>\242\212(=\332a\'\276\344`\316\275]\021\277\275\271\355\020=\3108\373<7\220\333<\352\256y<\020\326\020>\323\351\377<\006\207\362\275\344\3427\276qF:>\010\036P\271\214\274\036<$\310\305:\251P\234=8\262\356=#\301\366<:$;>\214\317Q\275\267\373\357=Ic >L\305\014\276\306\0163:{v.\275\356\274 ><?\206=+@\217=\334=\007>\321\307\230\2754\nA>F\245J\275e,\000>\200C\206\275\233\307\r\276\273\347\236\275\253\346\350\274\252\361\022>\020\332\324==E3;\302\220\304=\013\202\321=\322-\037>\233\324\357=\020hF\273$\223\356<4&\212\275\024\312\364<\370\335\341=\240\367\031\276dX\314\275\253L\265=i\217\304\275;\351V<\370v\321\275Li\307\275\323\317A<\006c\317=c\347\274\275\3654\276=\230\345\007=\027\333\003>2\321A\276T\376\366\275\370\366\260\275/\215\321=Ji\301<\004T\213=9\355\331\274\250\363\251\274\021>.\275\324j|\275j\375\221=\016e\223\275 \255\340\274b\310\267\270\202\335\024\276\204d/\276\230\341B=\335/\244\275\220\227\235\274\016\'Q>\222\t\207=\334P\223\275N\021\347=-\036\016=d[\250=\343H\357\275\274b\225\275\275\0179=\334o3\276\347?\300\275\214\260\270\275\030\254\321\274\346GZ=.D\205;zK\350<O\t\251\275\373\006h=h\337!\276\376\314<\276\342\212\205\273\217\323\325\272\275\2431\276:x\360\275*f#\276\233\200O\275V\032\206=1Wc=\304\343\202<pX\322\275\031co=\245V\313\275\177j\'\275\250E\302\275\351&\220\275xT`>\321!\235\275A\205R\2750\373\213<\233\256\220\274r\267\032\276\006\001L\275\232p\230=5\311\345\275C\266\337\275\2502O>\344j\370=\241Q@\276\243\225\225=\306\324Y=\375\224\271=B\027\304=+\350\221=G\264\225=\302 \365\274tp\371\275\331\247d\276\324\273\246\275u\247\035>\0311\277=y\025>=\235\361\330=z\310\243\274\271\377r>wF\010\276\030\020\275=\306\276\'=5I\370=%hj=\036\260\272<\002M1=~\356z=\215\343\344\273]\234\350<\333\315\302=\236M%>\352G\213=\307+\317=\024m\252\2742\3169=L\357\343<R\360\n>\360%!>\233\356\216=\"\207\374\274\240\255\222\275\343\2501\276\376g\017<\257\3441\276\202\036\016>\276\214\350\275Mq!\275f\030\001\276w\361\r=\316@o=\201A\220=\226\210$\2753\217\222=\037Z\234\274\335\222\036\276{T\357\2753\235\311\274\224}\300\274\n\'\371\275\004\325\030=G\014\332\275\352\377\200\274<\241\272\2752\247S\275\330e\250\275\365\020\352\274\246A/\275\017\234y\276\024\236P9\373P\225\275\350\036B\276\207\230\266\275\223\216\265\273\311\345\226\275\320\211\032\275\017\357\232\276\316\361D\276\225J\213=\234\267\022\276j.\014>\372W\000\276\t\336\274==M\212\274\014\350\000<\005\357\022\276\374z\321\275\0160k\275RW\"\276\353$[>v\013\004\274\244\276\364\274y+\230\275\316\300\345\275X\216U\275\240\220\001=\037;*\275\324\037\326\275\205\n\262=\331T;\276\177\022\030=X}\246=}\231\245\274\007Te\276%\030J\275(\255\'\276\325\002_\276;S\262\275\r\271\267\275\277q\004=mA\344=\017f\213\275[Y\363\275a\003\037\274\374v\307<\305\356\212\275\021\312n\274\364d\030\27672\210=\224\004\223\276\276\356\014\276\237\366\020\276>\323\035\275\346h\211\275K\203\314\2759F\242=>\235\017<\313\225\037\275\013\013\'\273 \017\033>oQ\370\275\256\227\027>\"\231\275\275\237%\004>\355A\350\275D\266A\276g\272}=\315\251\332=\214k}\276rV0\275\311\216\370\274OJ\r\276\333\227\025>~\251H=cgf\275\236\257.\276\263\001\034>^T)\276!\265(\276>\267\r\274\353\031\334\274\347X\306\275\327\276\372\275\032EB\275>J\256=\250#e\275z\242\014\276\2030\016<\221l\323<\037\013\271\275\023\262\224=\277\230c\275\222}\210\275\002\225-\275\t\245\347\275\231\333\314\275\330\243\025\276\370\232 \276{\270\345=\033\370\306\275\312\320U\276BU\235=\237u\003<\353^4=\271\272\t=\323\"\237\275\272\036\014\276\226,x\275\001\247l=^\1771\274\300\035\254\274c\031\376<\337\236\007\274\335J\n<\365\003F\275\t\335(\275\345u#\275\344 \244\275\204\220\377\274\254\3333\275\237\2418=\332\t\037=\216\363\305\274\200\017\004\275V_t\276\234\023Z\276\377z\353=\215\205\264\275\203\364\311\275y\033\014\276\366\230\024\276\211\3536>\241\274\"\276\375\355\366\275\277\310\300\275\275=\270\275\031\201?\276@\331\300=\244\314.\276\316\007|=a\317\213=\001\034^>Vz\267=}\311\264\274\035A.<L\341\331\272K\351\001>\030\014_>\335\326\203<\361\336\035\276\232\261\207\275R\370\231;\317\027\033\275\321\253\000\273\337\271\016\276\320\006\032\275\310\0263<\330\002l\274\275\033+\276l\366\204\275\260I\022\276Ud\036\276\311\353t=S*\213\275\303M\372\275\253\010\221\274l\325G\275\324\354\352\2752Y\355=\357\302\n=\222\350C\275\225\371\236\274d\212\210\274e\341\260;\241dF\276\002\276\373\274\004\304p\274\322\360$\276\266u\213=3\237\217\275\326\226\033<\305F\024>t\337\356=\222\207\374\274m\323g=\233\t\321<\250\265\216\274\241\305\320=\324\350e=\210m\330\275\227(\230<\377\360\312\275\034Q+\276$\"\010\276\032\315y<v|\006\276\024t\273=Y\367\233=l\007\027\271S\3741\276\r\371\002<\r\372\027=\206\024#>\006~@=\277\225\270\273\326\224\004\275n\360\037\275\326s\226;\276;\320=eM\257\275\365\324O\274\221OK>\256oX>\376T\252=L;;>\354O\336=F\253\205=8\005\\=}GA\275Q\246*>\002\231\344=g\013\003=\'m\"\276\324}\244=h]I<\200\026\346<\261\272\017\275\364\237\365\274fn\263<v\375\352<b\007\264=\033\213G=/\2569>\006+\301=\334\221\034\275\014\363\206=\215\267\371\275\347\010>=W\361\r>3\322\355\275\230d\003=\3766g\275\214\267v;F\361e<\336\3543\276\223\273.\275\372\327\200\275}\272S=\"\335\226\275\244\336\207=\243[\274=\204v\256\275Gd\324=\277\035\203<%!\334;P\000\362\275t\254!\2730/\305=6\217\024\275\314\3508=fn\n>|\2659=\277\030\005=\354=\"\276&\265\200=\214k\314=\nQ*=j\336\307\275\310\237$={\357x\274\331\001\314\275\231\032\356\275G|\025>\207P\230\275\003\276\362=\323\330\234;kx\026=\303@(=U\261\t<r\004N\275\350>\001=\036&~\275\252cB\276}\333M=\223\016\216\275\353\243\212=\272\334\003=\202<P\276]\027\004\276/\343)>i1]\275\003\177\031\275\255\227\036=\362x\014\275\301\223\217\275\177\2509\276\036\257 \276\203\305\037>B\213\243\275\364\227\222=\341\"\037\276L\243\003>u\373\014\276@h\260=\240_\020>\335\210\371\275\242\r\241\275\034\257\223=\242\210\301\273y\231\200=\037\365\220\275\211@g>\201\001\032\275\300\373\200\275P\262\217=\013\223\277\273zuz>x\360\014\276_*,\276\272\016\340\275^=G>\226\"z=\031\357\024>Ae\337\273\210\2030\275\254\333\242<T\227\243;\247\002\367<\007\255S>$\027\240\275\312bo=\377!\035>\272\034\253\275E\215\007\276#\275\335\275\324\375\250\274\035\202\023>\260$[>\343\240\265<v,\236>\331\270A>;\232B\275\220\215\"\276\177f\343\275\351\337\221=\253\202\222=2\275+<\223{_>\260v\254;\376=7=\tm\253\275\377\373\217\275ZI\027>\020\316+;\263\226\255\273\010\210\307\275\221\210\253=\322>\024;\215\243\037\275\342\007\350<\3130\350\275\375\212]>\260\203^\2752\325,\275\307&)>\001i\'=\273!\033>\tB\037>\315\265\243=\032\232\342\27447\256\274\010Z\300=\377\226\216\275\364O\351\2748n\200\275\025\327\215\275\325\3604\274}\021\'=L\367h\275\330\302#=\220\212\000\276\364\351\275=\254\270\025\276\037\331\005=\233;\n=\027Y~<\243V\264\275:\223\203=\300\003\024\276\034\367L\276\247\302\360\275\200\344\207\276\340\203,\274\244\367==\374\330\232;\250\236\026>\266\256\211=\352\r->\212\353\'=\236\017}<\264\353\213\275\261\363\026>6J\252\274\262\026\004>\210\",\2752n\201\274\315\323\277\274^\247\270=`^\347=\212g\273\275zvM\275J\000\315\275X\'\342\274~\200\032=t\261\360=\274\213\004\276\331\345\366\275\006=[\275 \037 \276\341\275\250\275V\253\265=GW\221=\243\305\246=\016\333\225<\204I\3668U\037\362=\310\352\360=\027\224\235\274E\033n\274\0019\263=\326M\375\275\017\021\312\275\331\230\301=\023\367\373\274\357O!>\272\272I\275!\032\264=w\\\024\275I\216\277\275\272\234\031<\365<\321\275vk\007\276\230\265C\276\223\226\232\275\351\250p\276Q\320%=\305B\262\275\307-\365\275\'\313\251=\365I\017>\320\035\273\275S\240\034=\241`\000>\3157\255=j\246\205=_\257\025\275-e\010=@\301]=.\nD\276\226/P\275}h`=M\371\252\275\017\317\035>V\233\n>\235v\305\275\313\0236>\346(\026\276\270\2055>\323\227\232\275Vi`\276\340\243\314\275@0\302\275\363\317;\276|\024\334\275B\r\211\274\027\223\201\274D\026e\275\235[\257\275\031\263U=FT5\275\213\030\316\273\354\337\202=\343\242J\274\356\265\205<\221\244\301\275\034 V<?\010\365<\331S\232\274\337;S\276\243ha\275~\251\222\274\3256\267\275t!\265<\235\254s\275 v@\275 0F=\343/g\276\005\333v\276\0108?\275\325\363\226=|\001e=\247\001:=\033\001\274=C\017p\275\3106\333=\211L;=Yc\\\275\001C\r\276\313\354\000=n\315\361\274\372_\212\275\2623\223\275)\207\307<\254\274,<9VE>\337\343\204\275\026bx=06\017=\375\035\031\275\331!\321\275\007\330\303<\344\265%\275k\311\214<\216G,>\235\014\216;5\266\177=&\330\303<\277\260\"\275~U\247\273\0076\010\2758\351\221=\323\200\037>b\003G=\334]\367<\232;\270\275\256\023\264=\257\341\365\275,g\022\273\365#\304\275\2744\254\275\010\244\235\272\270%\226\275Y\324\376;o\315\375\275\374j\356\275\310/+\275\200\007\304=\353\217U<\320\005\341<4\323\341=\006#7\275\217\006\226=\010c#=\255\230A\275I\037\226=\226\377\202=t\227\353=\345S\254\274y\303\255<p\214\016=\025*\272\275E\261\202\274:\273_\276cgJ=tK\222<\240\325\235=\027\365\246\275\332T\203\275\366\227\261=\002hi=\236\344$\275\265T\250=\"\254\202<\357\221\271=\364\211\203\275\337\025\">\316\254\371\273\217^\236=\232\3042\276cm\230=\224\344\327=\034>B>\244\037%\276\244u\276\275w\310\301\273\255\206\237<\227\037\353\274rtg\275\275\325\213\275\323\234\361\275\274\302-\276S\302\216\275\224\005f=\347y\017\276\371|\275=\371\360\257\275@\027a\274\244\300\n\276%c\370=kt2>;\2253\276i\233F>/pH\275\217\321\010>l\224\300\275\356^\331\274\273\314\237\275C\267\350=U\270\231\274\210\223\374\275\235\355\r\275/y\311=~\\\330\273\246\365(>\301\032Q<*D8\276La\360\275/d\034=S,\311=r\307\034\276\363,\220\275\250\312\356<\254-\304\275\260Nt\274S\360\004\276\371I\353\272\026\275E;\351;\253=u#\214<\002E0=u8\035=\247\345\247=\237\207O=\300\226\035>\3423O=b\304\202\2758A\004>\226\2335=\210\343K>#x#>\367\014\204\275\000n\273\275A\244\212\275\017`\017=\332t\325\275kE\256\275\376\376\253\274T}l=\177\003\232=\270\'4\276\326\264\273\275\303\234\316<x\305Q\275^v\300\274\374\236\204>\002\355\327\273wt\316=\302\036\030=p\237P=\333v\006\275Xr\312<t\200S=V\326a=9\214\n=\226T\270<g|\252=&h\200\276\350\266\r\276\273\326\212;3\222\261=\006L\252\275\270\362\261\275\320\230A\275\256\235\334<\224w\254=\006\374\033=\255\261==\215\212\001>5t\234\2749\230o<w\036\331\275\323\027u\274\020\324\272\273\363\235\023=z\350\342<L\221\302\274Kv\244\274X\335*\275\004\307\227=\334\r\274\274\217/\037\276\223=%\276*\247\307\2751S\003>w\265\247=\201\317\265=HU\265=\224\240\030\275\337\257K=\303T\006\276\316\361\275\275\366\224\331\275\334\273\267\275\276v\024\276\241\313.\276\0003\020\276\244(\237;\234=\">)\242\343\275i\226b\274\326`\222\275\202\367\301\275}\353\316\2759H\034\275Q\226\213\275\225\351\233\275\271\206%=i6\264\275\233q\210\275\263ip=\370\323W=\n\226\352=\366$\363;\333\274\n>r\016I\275\2169\265=D\262\213\275\204\314v=L\253\264=\375c\034\276\000\314!>q\247\332\274\213!\021<\244\200\234<\020\027(\276\375\325\212\275\304\340\n\276.\330\237\275\035\3412\275\377\005\033\276\210]\273\275\014\036\365\273\201\300\017><\317\277\275\323F\337=\030\254\350\274\265u\332=\311\276|\275;\177\270\275\201\031\223\275\225n\202<\341\274\r<s\345\034=h\321\n=OpI=>C\302:\223`\000\276uu%\276\333I\225\274\225\217\224\275g\335\334\275\3575\305=$\"\273\275\330\256\222<\364\211\274=\207\037\001>s\'\336;\212:\025>1\275\325\274,\334\211\275\246\202\017>\236V\013<\177e\251\274M\364\231<&2\026=w\007\250<L\342\220\275\234\204\237=t\335q\275%\005|<J\030\374=\026\007\210\275\006\302$>\021\252x=]A\360\274\315\372T\275\201\307\025=\3653\366=\225\310\211\275\035\243\r=\317\307\217=\277L\313\275\3600N\274\231\340\324<\020\264\r\275I\r\225\274\300x\240\275\230/\257<\010G\021=\206*\315\273\232\352\031\275,4p\275\350E\024\275\240\2772\276\335\360\346=\341e\270=\022\300\021<\232\366^\275((-\276y\232\200<\304\331[;\033\335\027\276\252\212J\276U\\\017\276\225uc\276u\t\327;\'V\035\276y\273\r\276\224\204\341\275EG\023\276\364\216;\276\000.!\276$6$\274\364\t\306=\3460D>\r\002\234\275Fv\022=\324:\347<\026A\261\274\2213\376\275+\317\350;\3101\225=\006\210\301\274\215W\374\275\300\nm\275\334\224A\275\212\330R\275\322_\216\275v^?\276\205\037\357\275\016\230\363=\340\350\205\275\335\236\031>\316\022\230\275]\346\034\276\304jI\275&\362\025>D\367\251;%?\034\275\372o\303=\355\205\266\275F\371\340\275m1t\275\226\322%\275\370\025\r\276l\300\014\275\tk\337<p\336g=\241\263\276\275F\033\034\276@/E\275\221\210{\275F\017\374\275\232\274\253\275\302\217\035\276\370\031\327=\347\354\317\275\n\235\001\2753<\r\276l\031\370=\237^\035\274\001)\274\275\024\350\200=\206R\365\275\030;\226\275\037\002\013\276\024\'\215\274\305\274\031>5\007\022\274\312_\005\276\033\3245\276\210*\226=l\306P\273\377N\230\275$\261\211=l\225+\276\244\250\216\275\275|\332\274\034\311\016>\372hy\275\316$\234\275\232]\337\273P\010\310\274<\322\030\275\236\372\242\275U\201\227\275?\266\036\276:|\307=\251\266M\275\301\315\353\275\345\023\345\275\213\223\301=O\227\225\274T.\350\275\3460\014\276g\245\030\276\323\366\250=\254j{<3\355\246\275\036\245k=x\376\331=\225\221\344\275\304:\372=\026\350\265<h\236\">\300Q\237=t<\025\275\263h\246=zZl\275\034\366\t\276\347+c\275UH&<\364\341\205\275\231\300&\275\024d\255=\ts\271\275\215#\006>\020/\277\275M\3157\276\322\364\233\275[:;<\002V\302=\365h\256<\034 0=\333B\224\275u\355\010\276\261\021\334\2755\230\332=\205\352g\275V\251i\275\377\007\363\275`\342F\275\257!\006\275p\265u\275Xb\216\274\314=\212=\256\364\206>\252\321\217>\2756\032=\326\322?>\300\375\035>\365\343\204=i\t\001\276\001\202\210>\211aD\275\214\324J=C\352S<\2303\364<\031\224|=)\201\217=\230bz\273q\214\236>\005\"3>\023\340\335=\255O\244=\\\026\341<\243\332\023>\356\233\302\275h5\337=\013\331\031=\002H\032>\n\024\037>*\264\215=\024A\257>$\234\241\275\3276\006>\034\271\207<)e\225;\222\215f><\270\356\2758\2463>6\217\210\275\371\013\334<\264\343\324>\225Y\026>\037<:>DV\301>\270\204\237=@~\322<\300\334e:\266\377\314=\007\220&\274\266\0027\272]\271\332=\206\203\310>B{\032>2\264\240>}a\207>\027\202\204>\036;\232>\262\3378>\026`\212=\332\214\350=*\213<>(u\034>\006\332f=\007\203$\275\3049\032>\223\023\265>\253\363U>\245cz<g\027\246\275\006\377\270\275]\225\267\275\317\223q\274\302Z\311\275g\333x=,\200\007\276$c\342<\'\377\236\275f\273D\275\300\231\300\275\341\273\010\276c\2115\275\322\237\235=f\375\277<Nb\310=m\374\364;\300H\341\275\226Cb\272_\233m\275AnF=\023\265l\273\031\222\017\276_<\252\275\030\275\230\275\221\007\003\275\333\211\200\274\306\342\337=l\2667>\225;(<\225\360\031>e^\200=6\235l\275\273\236\351\275\344ZN=(\014>\276\324\204<\276\357\243\344\274>\031f=\3756\203\273\r\240\203\275\351m/\275N\032\016>\237\004\346\274to\224=\271\330\237\275\346W,\276~@\300<\005$\032\273\342\325\225\274\323\nu=&Gh=S\3222\276O\315 \274\347\243\026\276\215\023\007\274\310\037-\276\205B:\276$[U\274\321wk\274\311\023\355=#\2142<\232\037\215\275\027[\376\275>sx=\373\013\270\275\366;\026\274X\255m=\205VA>\220y1>w\310~\275\314R\335<\266a\014=\316\245\373\275\233\315\271=\002\312\321\275\316H\235<:\3461\271\002]\002>VB\224\275\372\'\254<9O\354=a\315g\275\355\255\215\276\365\027\205\274\003>\206=+v\222=:F\304\273/\304\002>g:\357;\\\n\'=\303yv\275\343)\231;\001\225h<iH\275\275``\240\275\306\370\233\275\211\375\274\275B\347Z\275d\353\340=i\325G\276t;\362=X\260\327<s\030\353\274V\307\245=#\271\275<\225c\007\276Q1\215\274)Q\323\274\274\315\257\275\250\221O\276\021K[\275s\010\021\276\371Y\337;\"U\337\275&z\251\274\362\000E\275\323\264z\275\010\336O\276\210HY\275\364\306\023>14^\274,\351\"\275\373\241\271\2754\343\255\274\0279\375\275\242\375\261=\351\\8=0\375\t>A4B\275vU\310=\"\2439=m)\r\276dW\007\275j\244X=\313g\025\275W\217\\\274G\030\243\276\371;\033=U\214\214=e\245\313\275\n\364\375<~\232\250=\365d;\276p\004\221\274\317\356\223==\035\025\276*\371\353\275m\273\255\271{\244\220\275#\343\006\276\207\2345\2753\317\023=;.\n>g\304\"=XK\322\2754\265\362\274i\375!<\321\244\363=5\231\"\275\2030\360\273\200\013\337\275\264\322\254=e\033w=A{\020=]l\216\275}\021\261\274)5\257\274\224\233\027>\307y\002=\377\373\254\2734\023\220\275\363\261W\276\226\214\014\276v\t\247=|\'\335\274IO\304\274\206\0071=\324z\360=\356\201\326=@\211\004\276\3767s\276\374t\023>\016\\\315=c\n\253\274T\350\230<7\037z=\301Vl=\263\213\342=\0041\027<\333Ei\276|;\276=+q/=\367\235\030>\307^\r=\261\344g=\325J\001>\365\352g\274>V*=\305\320\r=#\367\252=\364G\002>\334\321c=\3613\350\275\037\010\267=\347\334\013>\377:\246\275\\\275\343\274\343)\027;JU\022\275Y\260P=\270\000\360\2751\234\353\275\246\234\303=\350\371&\274\273J\032>\273DN\2750\006J=8\345\202=\324cQ\274\224)\302;\200f\026\276@\213\205\275\207w\247<*a1>Y2U=e\\4>,\302)=\006p\355=WB\250\275\250\366\232=w\033p\275<\007\347<\313\307;\275\000\337\016>\266\237\201\275\254I\201\275\342\215\230<!\217\030=\233n\016=u\2564\273\213T\356=\301c\272<F_*=\236\004\350<V\027\021\276X5&=T\206\334=s\342\236=\321\202\270=^;\204=T\317\350;\340(5<\260\0132>\206a.>\345\221h;\321\033<=\275\220.\275E\266\204\275Gc+\276PS\027><$\276=\321dq\275_\322\000\275]\251+>,G\t\276a\002y<!\226\010\276\360\034\001>\006\273=>\201\022*=e\324\232=\224\226>=\331_5\275\027\213P<\231\341h=*\272C\276\241!\275=M\226<\275\312\205\030\276Mt\313=\274~*\276\242\304/\276=\037G\276}/\303=Q.)\276\007\223\272\2754>W\275\365\2410\275\005\303\362<\230~+\2754z\016\274\301y \274\250\212\016\276^e\317=$?I\274\022\234\000\274\275u\246=\331xJ>4b\200=f\214\345\275\001\263}=\020\3042>\316\341\214\275\255\304\214=M\236\341<\366\234\217\275\221\354!>\341\033\016;1\322+>\223n\364\274\300i\037\274\304$ \275W$\352<z\220\374<\247\203\353\275\276\005\235\275\352\302\002>\022\223\340=\230R\002\276\367.\246=G\310\030=\227\372\030\2759\313@=Zh&\274\314y%<B\375\027<PWE\276\307LP>\201\320<>F\3623>v5\245=R\252\215=\310\020\213\274t\206\215=\357>\177<\365W\004\275.\177\240=G\345\034>?\016E=\215\306\311;\003u\315=649>\306*\266<\203v\271<\'i\277\275\374\244\200=)}\002<\n!\360<\007\314\005>\217\022\270\275\236F\004\275\265\201\344<\321\267\307\274n\n\314:\361\212\243=\352\013=>\001\316->\346D\\>\260\242\331\275\0132`=^r\346=\232Qc=\217\201\247=)\242k\276B\327\263\275\203R\"\274\376F\251\275\240g&\275+U\256\275\322\023\312\275\006yb\274\276D4\276\307\270\326;\371\021\037\276\2134E>\212\230\212\273\215\262C=e\360?=3\337\341<\020[\340\275\227Q\321\274M7+\275G\363\034\275\225\nD\276z&\213\276~\376\004\276\244=1\276\324.\363\275\364~\253\274\274u\215\275*l\337\274\356B\266\274W\033j\276\024X\020\276\373\325\t\276Q\235\005\274\034\224H=\263\261\225\275&s[\275\255\356>=\245\325\211\275u\252\243=d,\225<\320\314\247\275&\266\241\275\323\337+\276\272\362\252\274d\n\276\275\022\323\226\275\000I\3116\244\310\031\276\307\342z\275\314\220\364<T\000\237\275S\300\234\275V\004\032>\367U@>/w8\275\024\370.\276\025\031\031>\376\352\030=\231\231B\276Z\004g=P\372\342\275\235\322\316\274\316\013-\276z\331\017=\254`\225=\tX\247\276E~\321=2p\327=f\266\267<j\3143\274&T\331\275\351\316-\274\242r2\276\224\334\315\274\351!\350\275\336n3\276r\226-\276\001\314\370\274\'\271%\275\036\252\365\275%\026Q\276\352\266\220\275\267\273\r\276\256t\304\2757\034\233;\006\250\026>\372_\223\275\373$\177=\000\n\'>\364\023\360\275\2024&>g\270\305\274\250v\022=!\274?\273\247\273a\274\017C\021=\277\225\022>q\212\301=\255`\036>\031m\"\276#\365\372=\024\005\346<|\257&\276\016;\307=\031\230S\276\023hB=\354\374`\270\260\277J\274\361\314\264=\220q%>\366\250\"=\231cG\275\030\311\312=\232\034w\274\216\335\266\274\312)@=\317\272\300=\242\242\267=,h\377\275\021\301\017>\220E3<\215&6\275\'{\272=K\243\302\275\264\341\310=\201b\024>\342R[>|\026\016\275x\324\024>\005\001\030\276>\366\002=\333%\301\275\363W\232\275\000\177\212=\334R\021>=\255\326=\236-r=\212\254\232\274\322\202\217=\021\003\333<S\n\032\276\237g\355=\3050\220=\353\r\275\275\017\251c;\214a&>v(l\276\227\004\277\275~\264B\275KL\360\274\264\316#=\371\366\251\274P\002\247\274\360/\252=&\350\342=x\241/\276\350\206\003>\350\305\251=\315w\205\275\3152\"\276Hv)\274[\232/>\234\3335\275\313^.\275\220q\356\275\03356>!\254\320\275\025p;\276k\216\312\273\321\256n<\374\366\t>M\tW>\213\244F<\000\021^>\373\036\325=U\007}:\037\364\013<V9\332=>q\210\275\304\201\351=\326C?\273LD\023>\360\351\320=\326?\202=\354\n<>\312!7>\332b?\275\361z\246=\321\022\327=Az#=xp=\274#\375_=\322\253\357\274\033Y\027=\211+\354<\223M\275\274\nT\367=\320\251<\2769\370.>\311\356\031>\014f\n\276\351\354\203\275!\241\240<\370\273Z<\'wd\274\023\322\337=\304;\t>k\354\337\275.\240\'\274\367k\237=KX\344=\272-N>\026\301\310=\230@K\276\2142\032>\231%\225=.\262\333\275\326\010\230=\203\025\271\275,\277\t=\232l\223\275d\314\304=\002\354\310<\007\3706=@\003y=\265\000\314<\t\263\032=\031\017\007>\347cv=s\001+\275\2558(>\213\352.>0\247\232\276\260L\202\275\035\006w;\263\2577>\221QD\273\361\005\233=\246\306\364<\216\374%>a\003\365=\302N\376=\256}\325\275\037\326\211\274tRn\272\252\022\r<E$\254=z\363\010=g\232\246\275\035x@\274\336$e\275|\212\021=\264\275\355=\356Xj<-+.=\035\213\233=4e,\276*_6\275\337\212\032=<\215\307\275\333\017\020\276\006\326\252=\367E-=\r\371\277=\302\214#\275v~\344<\034z\004>9\355\367\275\3672u<\270\020\366\274\r\312\271=\377\370\324;8\256\241\274\231\351b;\376t\357<K\315\n\2753\2525=\314\2737\275\231\367j\273^O\206\276\363\303\033>c\350\025=\036\320\224=\363\277\262\275\255>\003>\217b\216>\023Ml\275s/\225\275RK\203\275\033\264\361\275\000>\254=\\\021\213=\273\252s=\220\326\022=?FJ\273Mv\243<\366q\376\274\360\302\335=\005\177\350<\247\306\260\275!\240\024=\252\377\207=\252R\027\276\330\274\236=\356\366\352=\267Q\210=\216\\\274=R\n\332=t!\233=\266F5=\200>g;\352\\\255=\361{\002>{\237@\275\363|\275\27473 >l\360\233<{zU=\3653<\275\"\007\334\275r\334\202\275\276\220\n=\035K\246<\274I\230=\321\226d\275_1\'=\223\350y\275<E\334\2759\343&\276\323\310\256=\251:\244\275a\3143\276J\231\322\275\212\274e\2751\246\004>\255e\250\275z\330\344<\350#\362\275\305*\177>9\371\022>\017>\021\276\261\360\320\275X3S=\317\362H\276\333\330]=lr\302=\006\036{=\320\034\'>\"\306Q=\327\367\373<\254U\317\275/\224\376\273\344\207\'\2756]\222=\315\351\355=\037`\226<\017\357\221\275\323E\302<\200\274n=o\270\026\276YE\r=Qg+\275\344\353\266\275\315\014>\275Tf\347=\302\327\203\275\036\241\357=\314~\324<\017\300+>\350\177\251\275z\312F=qH\221\275\202\373K\273\371\333\275\273\252\021h\275w\243$:Y\2551\276\331\320-\275\317\361\275=V\230\317<\300\200\253\273\365m\213\2756\004\005>\230\000\\=\354\360n=,\"\334\275\246\236V\275h\244\257=-\370W\275(\212\211\275\301\033\251\275\333\272\273\275y\363+=\326\367\200\275\260\371\315\275\210\366|<W6\252\275\030h\352\275X\221\243<\375+\007=\323\265\205\275\373\342\206=\305s\340\274\362z,\275\350v\226=\004RT\276\360Y\200\274\355V\\\274\337\237\355\274|\325\243\273\224\221\303\275\376\020\235\274\nx\021\274\344%\307=a\004\n\273\014\333 \276\276PC\276p2\245\274\231e\300\274\347\241{\275\250}C<\356\270g\276\317\261\344\275\245C@\276B\212\227<\301=\005\276\310\257\t\276\010\373\n\276\'\316X\275\215\014\222\275A\364)\276\3625Z>u\246;=\301~>\276K\014E\276|\255\310\275\020\274\004>\225\317!<\221i\020\273\221\331\254\275\200\031M\276\245!\253\275\344\207O\276\314\252\220>tnf=\353b\272\274\221\273\324\275\337+\301=<\275\313=\030RU\276mQ\230\276\336L\036\275\214\360G=>A\020\276\212P\242=J\242\256=\234HO\276\230\330\320=\000\335\266\275\262\355\333\275\324k\307\275\207\'\332<]\017`<\355\'\332\2752\221:\276rV\213\276\366\351\247=J\212\005<\357=:=\017C,=\0211\364=y\2046\276\216\001 >\221\357\257\275\234\372G>K\033X\2750\252\244=R; \276\336\0213=\026U\225\274\204i\210<P\2461>\032\350$>}h\004>\376\366\310=~#a=K\207k=SZ\211\275Z\320 \276\341\\\237=j\303l>\234y\337<\372\214T\275@#\352\275\272y\221\274\247\237\237\273\213\016\202\2754\352\000>\003\374\315=^\223\357=?^s\275(e\207>P\312\315=\366\342\201=\n\243\303=\333\033\370:\362\265`>_\232c\276g\262\342\273\000\030\224>\240\233=\273\246\270\005>\343i\367\275D\363\020\276W\222\337=`\002.\275\007\3551\275\360\2578\275\2569\003>5RP=\350\242:=\034l\000\276\207\267\010>\277\263<\276g\\\340\274\013-,=\255\227\300</l\324=(\027V\2755\341\002>`X\230\275\376)-\275\303\n3\276\322\\\006\276\307ai\275\265\2652\275\373\274\003=\247F,=\355\002\307\275p\347\273<\320\032\231\275y\207\027\276\276\231\243\275a,\272\275g\377E=\255!h=;\337\014\274\356\343\363={w\027<\352D\262\274\255D\343=\366D\311<\273\263\000\276D\316v\2755o\263=\n\305\342\275\032]\270\274\372Lw\275\034\006[\2736\2124>9d\244:\344\017\267\275N\243\005=& R\276\233\215T\275\244\252\202\275\304\'d\275\305\025\266<\345\334\222\275\261\274\247<\372b\\\274#\276z>w\327\036\275\267\270\240\272(T\023\276\311L \276\2606\373<\300\277\"\276\302H\252;\037\364\265=\254\311\366<\004\267>;\010\\\333\275\303\220G\276\264\262\346=\357\277\377\275\276\232\257=\204\333\217=K:\\=\244^\214\275\377\377L\275D\017\204\275qO`\276Bs6\273\222\2361\2768\213\252\274\314\362\335\274\302\220n\275\027\344F\275,\t/\2760\202N>u/\313=\261m\335\274Je\256\273w\276\376\275\010\277\216\276\350\003\000\276\211\035{<<\033Q=\336=\212\275\234\2571\275_\303z\275\240c\270<lQ%;E4\022\275\r\r\021\274\010\322\244\275\200C%\275\227\207{=\262\352\251=\310do=LE\037>\226\314\320=X}W\275\232\375\217\272\366\350\363<@\243\242=\213R9=\307\212\017=OyM\272\322\363H\274\022\326\211\275,\014\364=\267]\302=\330\233\270\275\302\326\273\274\300\226.>\305\325V=\024\227=\274\224CC\276\366|X\276\222\270\222\27580\261\274\305\371x\275^,\014\275p\332\303=\370\033p>\365nO=\317L\210\275+.8;\255c\262=Tl\205\2754\314K=\253P\265<Q|\036\274\022\005\266=\025\220]\274\023B\235\274d\2303\276\360\346\203\276\320\037\361\275\261\206u\276\\\276\224\273\244\013h\2768\254\204\275\341\327\013;\227<%\275\325\'\331<\347\0243\276\315=\343\275Q\304\375<@\313\307\275\2755\243\274(\214;=O\241\245\275\277\023\212=\213\224\304=\226#4\276\310\004(<\301\017\010\276b\265>\276\274\363\202<\226;A;\305 E\273\327t\240<\202\n\265=\0203\023\275\224\374\006\276\016\204\030=x\330\375\275\250x\337\275\006.3\275m2\335\274\017r\313\275d\243$\276\205\230\'\276\327b\303=\261f\361\275\221|\373\274\227\310[=D\320\247=T\357\004\275\177\325r\275v\340\304\275\251$\r\276\003. \275\241\313\023\276z\035\331=\204P\350<\022\314\240\275\201\373\316=~%$\276\036\223b\273X\360\032>\241\335><N:\207\276\004>\334\275\250\270\223=\200\206\022\276\000\207B=\241\327\t\273\205\376\370\275\021i\343\274\325\316\247\273\332\347\010\276\262d\201<H\374\034\274*\270#\276\347\302\t\275*\256?>\013\314\314\273b\351O=\303\270,>\344g\254\276B\321\026\275\375\323\350\274\233\210\200\2752\354\001>\3713\227\275\373v\341\275%\\\222=\320@|\275j\020\016\276f\355\374\275\034\254`=\232\354\253\275 ox<\370\236\316\275\231X{\275\002\320\341\275mw\260<u\033\301=\325(\265=_\215\'>\300\330V<l\211\335<#\033\025\276\330\371\313<\243\315\273<5\277\230\273\017N\034>T/\013>\37433\274\013\213;\276\221\331U=\346\036l\275\352\312\376=\260\274\302\274{\234\017>\245-\213<Rt\347=\237\223~=\251!\263\275\345\353\231=\347\006<=\276|\010\276\252z\251\272\366]\037=A\375\242\275\016\253<\275\376\353!\276\312\021\332;*\246\233=\362\352\000\275!\013\274\2759XG=\361\rW>\004\333\003>\324J-\275\010\316\016=2\366\352\2751\243\t\276<\302\340\275\232\260?=6\246\333<N\344\303\275#\256)>=;4\276}\026\030\276\203\"\222=\260\324\226=\177\272$<7\343\030>\341\004#\276\265m\021>%\255\204<\344|\266\274h%7\276=\256.\275J\177\236\274\\\216+=\277\263\\\275\372\341\355\275B[J\274\3303\316=T\2259\276\016\361\030<\022.\036>A\326\240=$\250\274\275\303\231I\274\177\243\220=Z\364\002>\305Bd=\004\323S\274\257\013\t>\250\003\214\275\034\353\313\275\310\022,\276\325\215>\275k\027\240\275\217=\024\276O\222@\276\355\246\006\276`? \276\262\356\342\275i|d\276\201\254\301=r\251R>P!\005\276\346xf\275\340\341\014>\222\337\236<-\204N=F\351\205\275.\337]\275u\n\366\275\003\333\004\276\373\236M\275\305!a=\224\237\364\275e\022\320:\0071\023\274\255s\250\2756N-\276m\014\233;\254\2013\276\034A\244=)\2364\275S\342\374\275w\223>=\311\306\031:\342\360\'\276\253a\307=\225\222\306;\337\230\344\275e\215b=C\346m<\345_S\274.\323\332=\273\376\313=\010\321\000=\237\273\236\276\325\322\235\274\376\2639=\007\305\206=\351\250\340=\212\034\253=\321\371\257=\270\314\005<\317\264<=\025\221\327=\224\t\032\275\303\201\220=Ky\354=\177D\006>\320\267\t\274)\220\032>\355k1<\322\233\252=\235\370\201=\020\r[<\312\3002=,\020!\276\321\315\342\275_\324\335=\3340\323\274\345\270\254\274\337\n\t>\233#p\275VC\2469\340f\t=Z\347\255=\013Y\006>\243\331-\275\006\t\256\275I4\204<7\020\257\274\303#\233<\205\017\311<LO\031>\254\263g\275\373b\333\275\215\223G>\243\364\223=\006\240\323<i(]=\256\342p\275\013\013\007\276\016\337\217\276\271\226\305=\320S\210\275\210\010\370=|e\210\275$\010w>\2330\320:\232!\202\274\216\023\342\274\361\354\016\275\240a\033>\353\2227=\3471\343=@\307\360\275._\226=f\350\333\274\332\227m\274\007q\"\275\332\364G=\362\302\216\274\206\375i\274\314\317@=\256\353\034\276Q\240/\275*\227e\275F\333\205\275\027CO=\361\332W\275\317\304\346=\r\347\347=\255\307x\275\363\307=<\033xy=\360\301\313=!B#=\037\306\303=z\313B=\020/\250=PI\243=e\022.>]\177A<\006p\313\274fs\317\275\302A\n\275X\312\335;\337\321I<tf\262<(\345\263\274\270\367\276\274\006\350\205<\021@\007\276\334\350A>\200GF>$r\337=\242jM=\335\275\324<L\2604>F&\347\273\351\260\025>\001FI=\262\263\343\275\333\374\257<\355tB=\001\t(\275\313~0\275\230\257\355\275\303\212\306;;\243\">\3230\323\274&\262:\274\031\263\255<k\206\275\275;\212\342\275=\245\224;\013-\031=\263\275V=\020\013\200=r\236H\275\270\244\354=$\306q\275!\251\277\274\256\3367\276\342\2116>\001..;D\347\007=\343\335=>\203\010\250\274,\225\236\274\216\005\"\276\202|#\276\230?\217=4\261*\275_>\337=\213%\036>\231\230\013>\305r\214\275,\356\327\275\020\007\376=bh\037>\205UX=\353\2635\276\314cF=-H\t\276\362\225\332=K\273\r=\002Z\246=8\201\220;\3244i\275\215\206e\274\377\257B\274\002\304\371\274_\032S\275\301\263\007>\220N3\276\312\347\247<\365?X<s\024\007\275\007w\336=\344\330\366=\2705\206<|\345=\276k\031\215<6\327\3279\272\023\360\275-\316\330<\336)\251=\276\255*\275\035#\315\275\3718\005\274\345C\352=\"\255v;\024.;>M\025N=\035\341v\274\024\261{\275\267\";>M\335\226=\354\033\211\275\014\324\217=\002z\027\276\232p\374\275\321\036\276=\017*\\\275\036\177p\275x\264\002\276+\277\205\275\235C\026>m\006\013>z\016\317<\252`\254=\214\201L=\327\002\234\275\276\301\341=_\035I\274\370W\227<.\001\241\275\023\303r=\2133N<\307E\272<\204.\227=\254\331\037>\301b\257\275\370\014\000\276B0\006\276\203\366\335<>\247b\275\255\262\020=6\276\212\274k\347\032\276l\234\200=-@7\274v\031\233\275s\303c\273\213\n@=|\353\345\2749pv>\362\010\320\274\2542\224=\373e\\\276\314 \227;v\214\232\275w\022\230\275b*y=\225\376\326=\207\301\263\273o\3648\276r\021Y=\251\253\000\276P\204!\274\231\254\231\275S\234\024\276\356\351\303\275\036\2018=+&X=\254h\341=\242\316\n\274f^\335<\361.7\275\201\277\301\275\222\234\231\275\336\027$\275\326\301\033\276g\242\301=\nq;\275Ky\276\275yU\266=\245\026V\274\276W\350\275\341\035\202=\227%\340\275\331C\020=8\343\037\275\026S\035\276\271\345p=#\216\006\276s\220\341=s}\003>\225*\002>\217f\337\274\022\312\021\2753\373\240<\007\314A=qkE\276\307\t\001\276\022\322\246\273\361\025\233\275\220\367\354<\253\024v\275\277e\332\275\231\357\370\275f\210\330\275\222\\\273\273\304WO\274\320X\014\276m.\374\275}$\245\274\331\350\361=<\2009\275\222%6\276\254\363\263\275\272\204\311\275\212\300!\274\364s.\275\020QA\276\300\224\256\275bI\231\274G\314y\275`\257\276\275\245em\275\363h\240\275ZI\234=\305_\215\275\024\nP=\006\226\374;\013\317w\275N\340@\276H\356\305\274 \214\277\274\033\267\273=a\323\211\275\207\246;<\215\310\357=\226\3203\276\320\313j\275\263E\230\275\263\324k\275\242\232\277=1\271e=\204\376\323<\t\251\304\275p\251\215\274\302\345n;d>\260=\276c\337\275\230Y\350=/\244~\275i\322#\276,\213\214=\341~\311\275.Tg=\234Fz=\203\224\255\275DD\241\2751\304\275=PS\306\274\225\242\033=\335T\250=\277\037h\275\330U\023\276B\034\003\275\024\004\234=\272\236\327\275zE\232;\336\365\364;7\034\305\2753|8\275\341\230==\273\333d=\340\0167\275\362\365\257\274j\217\245<I)\242\275\315\210-=\017\351C=\251\274\200=\t\263K\276{\340\002>y\343\031\275\030\002]<\377\276\263<\002\037\261\273\204u\r\275\362=,>\t\2710\276ni,\276\222\255\352=8Ko\276\211p\362<\253\371\235\275(_\342\275\306\364\035\276\034\276\001=\264\n\363\274>V\262=\033\301\312=\302\204\n\274\204\307(:\322\301B\275\243T$\275\265t\372\2754;\237\275u\267\247\275$\2367=~\035\323;@\014\213\274I\017\006>\261\274O=\304\276\260<Y\363j\274]T\243\275\027\344\310=A\212\227=S5M=G\317\026\273\'O.\276\205\232\037=\272\036\311\274\260\205\274\275\244\344\267\275\261t\243\275\305\000\305<\356d\322;\341\362\317\275\247F4\275\n\273\221\273\036\247\001=zg\037\275\177\034\240<\244\026P<\014\3144\275R\362\377\273)\265\260=\310\255N\276\226g\326=&q->\3732\272\275\352\307\213\275\237\374\305=\315\365L\275)g\004\275\352p\220\275(\257i=\2251\r\276s\371\272\274\230.\365\275\250\341#>V \224\273\364\345(>F\227\270\275\217\004:\276\206\347\265\275\2224:>\343\320\304\275!\266}\275\013 x\2750wZ<\322\231\300=\215\315\023=\2271\247=?\237\255=\343\002\244\2752\213R>VXz8M\023\345\274\213\'\002\276,\223I\275Kb\341\275\214O\345=\273\317\213\274\336\2269\276y\0063=Q\017\337\274\317\345\261=W\214\375=.sB=v\321\233\275g}0>\201\247P;\302\356\344\275\361^j>N\002\031\275\323\321\306=\271\0138=G\323L>\220\256\377=m\314\343\275\356\215\346\273\367\0219=\256\020\025=\254\360\365\275y8\033\275\300\220F\276j\305\032=rAM\275~\271\216=\336D\225<1\354\225=h4m\274\030\271\301\275r\214V<\362]\211<\020!\356\274\2259\020>$\215\251=\r\351\342\275[\373\205=\244\\\253\275\215i\r\276r\333\332<c$\337=Qk\241\2750v<>\227t\261<,D\314\275l\\\376\274\347\3027\276\237\\\236<\244\335\031\276\221\233N\276\264z\210=;\277\304=\231L\363=\271\370.=\311*\037=\314`\276\275\036\254\230<\231\331\027\2760\031\221\274l\207\013\275\262\010R\276\177\005\276\272\032\002\014>=\243`\275\005B\307\273I\006\362\275\316\3529=\360\273\372\275\356N1\276B~\322<\352Y[=\3642\370=\337\377\226=T\233\253\275\216\337(\275\003C\247<a\347\000>\010\330^\275O] \275v\335F=|\311\000\276\230\307o\276w\311\317\2754\323\004>\313\354\233=\253\234\362\275\"\025E\276\244={<\n\3749\276-t.\276\0369w>\232\347p\275\262\226\036\276g\032\322\275d\367\226\274\271tU\276\236V\215\274\300\017V\276\316\220\005\276\017t\021>\256\220\243\275\022\tE\2767@<\275\321\317\304\275H\205r\275.Y\371\275p3.\2753\241f\275s\271M\276\022\013p\276\272\017\323<1\313\270\274\033\200\223\2751\335m\276:\033\251=`\202\036\275`\307\\=vQ\313<\002X\260=\272\244\203<zn\352;\266/R\276,)\026\276\265\244\265\275\022\210<\275\250\360\373<-\006\316=.l\013\274P\264g;\224\236\254=\262d\206\274\224u\233=\032\013\252\273+\036\201=\214y\221\275\305 g\275&\376\211\271\'\025\010\275\205\340\026;\033\352\247\275\373\211\347\274\234\004\342\275\230\377\025\274y\320==\244\016\217=\3200E=\200ny=\373\243\213=\311e\035>C\264\020=F\230\224\275\202_\226\275\007\355+=\353\372\317=\275\240\213\275m\331\307\275w\2000\276\273\256\303=\240<\303\275s\247)\276\007\222\334<L\260\242<\264\363e\276\201\035K=x\246\212\275\334\242\266\275j\301\346\273o\330\014\275\253UD>Na\313\275\363\375\207\275\262\266!\275\312\357%\276\r\262\213\276h\034\271=7\325\323\275\2348\243\274]\215\034\276\206\003\016=\247\376\021=\211Nd=\314\3522\276P\206\002>\363G\317<\n\367\003\276\307\322\231\275\314\306,\274Y\027\223<\2361r\272\r\257Z\274uC7=\363\305\362\275=/\366\275\t\017\304\275\361\245\304=\026\344\275;\353\226\211\275M\253)=G^\034>\206\350V=\230g\024=T\014\366\273\363_N\274\177S\222=\007\242,\276\033\246O=\275\"\r>\210\326w\275\225\2779<e,E=\263:\226\274\210\207Z\275\3458\016\275k}\025\274\017\3647=\210\262\320\275k\357A<\370[\260=\343\322)\275B\257U\275\353\252\267\275\233\375\"=\345F\020>\242\314\202=>\263\226=8\273\230\275\304\366P\276\2204\322\275\330e\031>\324,\375\275iC%\275\216\333\356<\244\177\301\275N\301\t\275\334\0166<\320\204\037\276\350\342\361\275\2554\032\273_WX\275Jl\254\275p\343\316=\246p+\274\237\004#>\020\262e>\177}\267=?\323&>\355@.<\032+\036\275V|\214\275@\217O\276`\\\311\275\323\206\022\275#\206\022\276p\360\343=\246~\332\275c\'\034\276O\233\332=pO\330;\235T\217\274\247\273\314\274\345\026\334\275\273\216L\275\246Zn\275\244t\254\275\305c\340\274\014t\003>\245\006\203> 5\262=\354\020\363\272+\270\356\274%_\004=\262\002\210\275Y\026;=\317\373\013\276M\311i\275p\331&\275\226&\201=\215\r\334=\330\217\201\275\025\307\244=\246S\271=9T\225=Q\341\367<\372\364]\276\020M\306\275K\026\035>/)\033>\371,\035=\202\032\343\274\303g\360\275>g\221\275\320\264]\276\244,\016\275\345\027\247\275\314\206\341<\226\364z=5\345\027<\000\2029\276F\201\302<\356L\014=6\301S<\265\370\246>\375y\361\275\315\201Y\276(v~>\222\232\236\2759\006V>r4\024\275X\004W\275\245\\\016\276\331-\235=P\236\327<\017\273\323=\000\355i=\006\033\266<!\370\227\276T\234i>z\213\271:\351\242\370=I\303G\275\233\242@>xK\215>\032\000A\274\214q\021>d\215\257\274m~\372=\370\263/\276wS\">\036\311\023>\215\000~\276\n\r,\2756\261,\276\211h\223\275w\371E=\343\031:>E\361h\275\372\207\361\275\262\001\215>\233p$> \222.>@\315u;n4\256\275ym\224\275\002`w>~\321\311=\360E\031=\256\017\'>l\333\206\276\331\263g=\251Gn>\356\330\247=\310\277\312\273S$4>\\\017\313\274\026e\245>\202\177U\276[L\250\275\034\310|>\313\242\343\275\014\211\262\275\310\235(>?\221\022\276>\222\255<\2552\214>g\233\315\275\323X\217\275\035\312\025\276\005n\004=Q\300\314<\rb\214\273\353\n\224=\357\312\006>\333\221,\276\232\357\214=\2732y=\225&\000\275\002\255\007\276\202\232E\276\307W*>\227\374\316=l8\367;\347\337\243<\352\313\005\273\225fD\275\305\317\026\276\375\200\347=\204\350\362=3Q\256\275\216\237\315\275r%\343\275\334\255%:\256\255u\275\247\007\007>\337\002\352=\020\375\307\274C\222\224\275p[1>\360\024\342\275\033\232m>{\255\352=)\271\252\275\275\314\t<v8_\275\253\316\t>\214\347\225<\361\212k=&D\037\275C\226\344<:\220\230=;?\251\275\033\240/<s!y<\366\200\346\275\227!\014\275\226\211\374\271F\214\026\276\006\320\027\276l9)=\037\301\265\275t\305\365\275\251RL=\264\003M<D\330\317\274\257\241\375\275\246\371@<\322\364\037\276\310\362\246<\326y\351\27396w\275\333\260\010\276\n\316\341\275&F\000\276\275\232j\275\273\317\260\275\033\217\234<\263x\224\275j\204M\275\322\376\031\276\320\277\362=\n/\247;cL+>e\243h\275\346\271\231\275\355\264\302=\323\207\\=\301\017\241=\217\010\322\275\026f\244<\320=\037>\005\276N\276\333<\225\273\037y+>O\375b\275\351\347#\274\003j\014>>\247\315\275d\010\251=(I\265=\316\016G>\177w\013\274\246\n\033=\272x\347=\014A4\273K\207->\302^\206\274z\252\302=\366\221\265\275\320\3715>%\331\302\275\200\272\307=\017\336\333=\017Xg\273z\340\027\275\331J\013\276\007w\030\276\340M\363\275\336W\336\2752\304\361<`\231\200\275e\252\020=lr1=\232\347\351\275\312U;\275\225m\247=6~\236=\214\214)\276\224\250\271\275%\354\364=o\037\226=\252\310\252=\356E\302<U\254\001\276\324FG\275\266\366\271\275\305\363\251\275{\365\235<\331\322\200\274\352\311\241\274\017\265\216\275\356\256\300\274\000B\254\275\017\346\356\275\326\212Y>\220[\272\2754\"\205<\374\240\307=\213\267\217\273\030\271o\274\263\220\036>\307\310\005\276\253\377\006=\277\214\371=\201\353/\275\2107\234\275$\263h\275\237\240\030>\315\367\351=\0231\215=\231\343\231\275b\225\244\275\207\360\244<\224\266\211=Ene\275\002\207\227=\203\3451\2759b\332<\310\314\243\275J\016\216=\336J\314\272!?\327=!\013\271=>\360\357=C\317L>\tMx\275\277\232\016=\330\315\017=A\260.\274\360\000\026=~\264\003\276!\267\036>\266\005y=\211/\030=yy\270\275\375\260\216\275J8\277=\313\347\306\2741\0142\274\200\216\260\274\311\313\305=OC\215\275\373q\241=_\331\233\275L\200\356\275F:\035\276\370\304\365=0y\035>4V!\276\nu\377\274$R\321\275\263\347\034\276\006\324\007=\246\264+\275\237Z\316=\345O\353<\037\364X\274a!\034\275\354\251\371\275S\237\014\275\340n\377\275\377\213\354<\234\363\001=\2615\246=\343\013K>g\242\263\275\021\316\021\276\226\320\210<\307\201\331\275\336\307\243=\356\224g\276sp\223\275\332O\200=\037\005\311\275w\027\355\274\317\320\211\274\254\350\327\275\367|d=\230Z3=_^>\275\010.\222<\21213=\266qL=b\232P\275\\%=>H\023\230\275q5\254=\234V\004>{|-\276\226\311\035\273\312\234\323\274jvF=\334\034\247=lX\024=8\344\237=\000\020\346=\240\265\030\275H;3\276\013}\374\2758\237\206=\373\266\204\275\362\251\376<\373\206)>\003\n\276\274JC\203=\264\254\001<\332\302\336\275\233\242\227\275\037Q\322\274\3577m=*\013\031>`Qn=\372\256E\276\340\177D\276u\235\000\272\270N\306\273\370\036\307<\232Y\265=\231\311\201\275%+\220=\3037\241<:\235:\275\317l\245=\232\255`\276\27746\275X\243\241\275yP\036\274x\346\362<\266\004!\276\217\255x=\373\257\356\275\244h\357=\242\301&\276\307\245\365=6\215\004\275\322\343s==4\227\275\'?\254\275\313v\025\276\262\036\373\275<\373\020\276\256g\255=\n\033\211\275:n\t=e\204\263< j\007\276E\204C=<\254\244\275\032\220\203\275J<\214\275\222b\322=0\004\373\275\307\236\254\274C+\354\275\020#\231<\351\355<=\351\341\021>\202z\234<\341W\021\275\236-}\275~\317\n>\022S,\276\367]\'<\361\222\025>\263R\243\275\202#\204\274o$7\276%\304O\275;Y\021\274\350\034E<m.\223<\3521\007>\332\303\023>\306\351\321\275*\\\237=\377\001]\274m\2059\274\334\031\034\276\227%U>\2314s=\342\322?=\314\251\221\274]\221a>\300\2458>\343\310\234=\311\3301=\013\262i>\371\006\266=d\004\263=0\233\377\273\376\003\274;\033\232\374=u\312\002>e\014 \276\210\304\245\275gQ\000\276\215\363\223\275\24608\274<\346\271\275nNK=)\362-;\220\355\231=\254\333\006>VxY>\214\311_>\r1\376=\236\370\026=\310\033\375=u\027\016\276\001\347*>\314\302\355\274\236r\367=\372\222\235=\230yH;\263|\023\276\3256\347=E\024\343\271\341\235\213\275M\300\222=H$\341<\002\270\307<S\243\024\274\305K\034>yf>=W\335\303=\340t\226\275PC\027\276\017s\222\275\"\346\305=\005_F;\201\214L\276\271\351v\275\025\350\243=\312\275\026>\3239\022<\326z\320=\233+D\273^O$\276\237\313\377=:w\220=\n\234,\276\326^\357\275\027h\022\276\307\233\326\274\301Z#\276\020\200\204\275\025`\"\275^\363H<\220\213\224\272=\357\270=U\243\242= \007T\276\242l\256\274]\206G\276\223)\323=\326\277\035=\314J\222\276_Z\200=\314\367\r<\310\376a\274\233\010\037>8P\036\275\032\343r\275N\203w=/\2110\276\177\031\3108\271\201\332\274\347_\233\275\223\366+\275\330\031&\274\2079\230\275*!\306\274L!\232=uT\362\275\277j\215=\2242\016>\270\266w=\202P\036\275X\346`<|\242\270\275\035\227\204\275\\D\237;GK\232\274xe\375\275\273<T\275[DC\2768\331\007>\345\313[\276 \322l\276v\036\010>\242\306\025>3%\322\274\311\276\025=\325#\\\275\247\355\034\276cj1=\266o0=\257q\272\275\345>\361\273l\010%\275\203\215\264\275\324{\\=\030w\002\275q\232\315\275\230\322\217\275u\233\353\274aC\307=\346\264\234=HZ\357=\257\220\037\276\253/\304=8\000+\276\202\300\r>\267gr\275\203\364+=5:`\276Tqb=A\322\221=\005\207A<\2136\227=\327;H={{\004\275\327\376j\276\233iC>\233\303\242<\032\026\004\275\335\274-\276z#\035=\316\330\234<\310\351\234=z\246\245=\010C\206\275\022\345\024\275\331)n=\311U \276\341\276\344=}\030K=m\031-\274%\321\266\2744T\023>\221\206$\275I>\332<Ht\006>!\344\302=\341\271\340\274\373\363\016\276\347\r\313=\3123\275=v\331\241\275\344\225-\275\237S.>\231\354\307\275\017\235\030\275]n\346=R5\246<\202m\254\275Y\276\374\275\370\tl\275CC(>\357\325\265={\373 >\227\300\244=\305\003\014\276\244\265,\2753\275\267\274\031X\343\275\314cV<\177\261\230<\326\035\304\274G\261\027\2767\272\377<hI\250\275~h\223<\266\207\317\275\241e\021\276!Tj=\340q\232\274\221l \275\004\026\203=l-\261=\253\227\320\275\260\362\036\2766\374\004\275\177E\r>\026\322n\275c\225\351<\370\247\016>w\243\357=\205Hv\274;\310\024\275\305`\346\275\006\346\211\273\360\017\027\274\247\264\004>U\332\241=\2340\216\273\016W\323=Q\246\233=\266+\252\274\241\315\343=4R\301\275\002\320\226=\267\026\021=\220\323\374=q\247\203=\0208\200=\037\007\262\274\032\014\021>$\244\267=\202\217,\2760]\362\273\306\242\017>\202\326Y=\214\213\004\2755?\332\275\224\010r\274P\024F\275\365\013-=\317\205\304\275y\301\214\275\226\023L>Y\352<>z\333\261\275\244\010\254=\001%\260=\'\364F=^\2758:\367\371\023>\014h\344<\343\327\375=\257\350\213\274J~\035\274\343V\253\274\t\360\016=9F\313<\265s/\276\262\026\203=\352\034\353\275\235=\027>\261\212)=\033=t=f\2541>\312\247\263\275\214iM\276\273(\371=\337\300\371\2748\350\220\275\251\377\252\275]^\360=D\na=i\320n=\350\002\266\275c:\344=\274rV\275/\005\326=RcM=\363\347%=\242\226\367=\270\017\310\274\262;\017\271\r\177D\276\324\301\022=\006\253\266=\034\223\325\274+\234\002>\212\362Z\276R\303\020\275\215\317\001\276\220T\244\275\327\327\022\276\340\206\315;\307d\250=7c\033=\2765\n>\215\263\233=\300nf\275\366\233\016\275j\252\204\273\233?\361\2745\223\203\275\376Y\013\276\255\317U<U\236\240\275z\024x=z\305\206=\034\234\300\275\034\024<=s\351/\276^\3643\2766\017\357;\350\271\364\275\236\225\261\275y\232\231=\023I\3059\376\270\210\275,\244\377\275\330\201\346\274\215\257\014\276k\311\224=#\334f=\310\353\247=\261\335?\2756\3735<\302l\232\275\335T\200>\022r\346\275Y/?=\021\322\007>+JM=KX\237<\225\210\212\274-\2306>\032\317\232=\320\361\024>\311\332\020\275H\"\355=\346\206\221\275\027\226\014>\226\317\014\276\216y\022>[\267$\275\025,\351<\317\275,>\350\"$=)\264\214\275J9\212\275(D\265\275Yx\222\275~\331\361<%b\307=\353\263^>n\367\024>\326\035\2579\3479\265=\246\321T\272\202R\261=\275\344x\273\234u\221=\007\315f\274\304\345\356=\246\256\010\276\256Q\252\274\037pi\276f\0336\275\216R\251=<U5=\216\347W\276\314\007\265\274\203\377\336=jR&>\027\2207\276\327\311\303\275\253\352>=\310d\006\275z\244;\275\234\304c=-L\325=\246\270\036=\233\267*;:j\325=!\243;=K*0\275W\024\000\276\233\036\351\273\305\363\341<\034\370\350<\0029\363\275\022\231!\275=\326\316=\260l\031>\201\350\231\275S\346\365<\\\376\213\275\276L\267\275a\265\333<~\332\031\275\344\002\254\274\177{\203=I1V=l/\345<\353\277\313;+\"\010=X\330\322=\305Z\"\274\345q\023\276\276\205\213<\354k\345<\232\306T=\370D\325\2757bL=!\016\231<`S\003>tc\024=\237\276O\275+\"\272=>\3123=\000\n\341\274\026\324L\275T5\334<6\244\363\274\263\202\223\275_&\330\275\372F\317\275Q\225\"\275\0262\322\2757\267\375\2745\236h\275/\265<=\376\255\277=\224\020\031\276\334\020\001=\010Y;\275\001\363\372<\263\324\263\274\274\265\375\275b\307\360\275\306\021\034>W\314$\276\2662\333=\230\217C\275\356y\245<D\230\020>W.@\276\364\177%=`\307\260\275bC&\276\225\276\231=\033\021\231\274\210<T\276\377?+\276i`\323=\306!q=\034\'\257<\204,\326\275xu\034<\275}\245<\021$\225\275\256%}\276\216\225\211\275\034Gs\275b\231\022=D\337s=\036<\233\275\037\016\264\275\204\202\315=\223\'\265\275\035;\006\275\006S\367\274\"J\326\274t\224\332\273\300\r\312\275p\270\271\275&\255\311<R\247\233=\231\261u\274\222\377&\276g#)\276d\234\036\276\366\215O=\313\3678=\264\307!>\332\303 \274\222\210\205\275Xs\031\274\251\221\003\276clh\273\221\323)=\374.\246\274>o&\2757\250\212\276\233\002\227<\0254E<\344\335\r\276\366\")\274#\0347=\2220\r\276!&9=)\251\263\273z\254\331\275\\\241\237\275\2359\214\275\276w\025\2750\313a\275)`\003\276\226\r\034\276\320\030\364\273\306\020\200\276s%\265\275a#\020\276f\321\001\276|\240\004\276\366\340\031\275\343\235\t>\014\273\374<4\357b\275\r\277<<\201`\032>LD[\275 S\223=\312\r\022\276\216\3460\275\003\"\201\276\257\367t\275\321\253#>{\376\220>h\312\023\276k\326\330=\377W\331=\242\177\017\276\r\312\365\274V\023\037=\223DL<\337,\252=\222\261~>\026b\264=\032\236\302\275w\313\004=\330\222*\275\311\275y<\tL\360=&\000\342=\272)i=\031L\255\275\223#\234=\366}\352<\345\363\207>\313\003+>Z\037\362\274.\360\251=\021Z6\276\250\333\"\276\005#\240=\t}\223\275D\211\214>\236\220\236\276\200$\023=\375\004\354=\202h\033>\220\264\274<\312}4\275\346\324(\275\224\353\351=\005\227\033\276\337\177\033>\332b\225\275\367\336\017>O1`>Iw=\275=\005\304=\252\3563>\217Q\033>@\036k>\211\365\371=\235\200\024\275\304\350\241\275\031\374h\274j\247\r=0x\r=\224\203\225\275\016j.>\321=\243\275[M\363=\'r\302=\346\216\253\275\334\361h=\373]\242\275\362+\366\275\251\340\242\275\244\205\332\275L|3>O\362\230<\240\023\215\274\207\217\241\275\336E\237\275}\026\303=\367P\374\275uT\034\276\233+\335\275?\270C<\266\021\017\274\230%\r=\375\261 \275\313\217W\274\026\r\202;~\036z\275K\204\373\275;\257\260\2752\225\275\275z>8>\000KF\276F\034\356\275\221\264\'=<\n\245\275_\303F\275&\341\311\275\362\331M<\022\000\260=\tz7=j\346W\275\203<`=V\215H\276\004\244\255\274\244K\300\274\255\017\267=\276m\251\275\003\230a\275Xx\366<\023\210F=\026\024\024=Z5<\275\305{\025>\272\223\226\276\251NV=\202r1=\320\246\320<\034\322\036\274xA\337\275\005\010>\275\324\347Y\276\201\237q\275$\342X>.\031\262\275\0051\352=\214\302\036\276kl\244\275\253<\314\274Hw\207<l.\347\275^V \275\270r)\276i#\004>\215\006\014\275\326\225\205=\277\337V=\021h\221\275+o\344\2730\372|=\257\212\372\275\325\024\201\275\221\305\236=\026\237\367\275(\024\276\275\304\246==0%\257=`\215\376\275\217`\026>0\215\237=\n\224H=\245\027\014<D63\274\240>\363;\252Z#=\254\363\373<e\370z\275\246G =L\033K\275\206\266\237=\3608,\275P\344\314\271\014H\317\2754F\271=JL\017\276\375\247\300\2750\266\260\275>&.=\324N\326\274\260.\277=9\247%\276dJg=\031\020\331\273\026:\365\275\t\237S=9\3010>\017K\027\276\232\253D>\252Q,\276\203\204\321\274\025\234*<\036V\336\274_\365\373=w!\263\274l\277\212\276Mv\315\274\352\342\213\274`\212 >~\372\246=t\302Q\276\244=.\275f\023\233=\247\214\272\275lqW\276\250\r\223=\026\300$\276\266\300&\276W\222\026>QQ\276\275\264\373\220=\370(|:\362\033\224=\031\033\004\275\242R\020\276\017\'\316=\\\023+=*\217\002>\024\276~\274\216\266:=\240\231,\276.^\276;\342\221,>\317\273[>\205\214\336=~\000\037=\370Fa=\363@\253=\300\323~\275{|\213=\246\013z=#\220\270<\204\315\274\275/\224:\274 \000\t>/s\303\275\320\037\264=$\n\376\275\304\3351\276\344\203\340\274\202\320G\274\020\275\232<\227\r\237\275\326x\307\275\021ir\276>&\013\276\270\375\232\275\337\034\311<\2520\235=f\236\327:G\270\020>\206\274\324\275\032\022\257=6I\310\275}\314\n;\347\372:>z\276\210\273B8%\276_#\253=\311\245\\\276\031M\034\276\366[\255\275\006\352T=\364\202\203\275\352\335\032=Tv\253\274\323\231\013>\342C\017\276\307r2\275z\312\313=ie\331\275\214\323\225\2754\337\253<\2437\363\275Ov\t=\201P\347<\223\005\224\273ly\016\276e8\\\275\347\\\022=\331,\230\274\251\032\302\275d_\271<\023\354\347\274U\373\327<k[\267=\337\n\230=\334CG\275lW\225\275\226\337)>\002\333\202=~7a\275\376E\023\275h9\325\275\342\273Y=Y1\222\275\363t\303\275P\261^=V.?>mGv=\013\235\255=s\265M\2752\221\213\275\212\213o\275pP\030>\304G,\276\346\265F<`\276\266<\341\322\276\275\037\305\362\275\317I`=\212:#=OdZ\276\265\200&=\003\262\327=\204\274`=\'\360\346=yE\227\275\253\377\002=\245\215Y=y\241!>\177\016\365\274>Bt\275\310\335\276\275\354Y\225=\340X\346=\036\347\014\276\306\342?\275\306\352\267\275?\020\210\2754,\247<@P\352\275\257F\037\276X\266>=\355+\024\276\301P\234\274J\312\220\274\363\237A\276\255\\\205\275\237\rB\276\251\270\271\275\276\204\224=\216}_\274d\366X<\343\201\375\274{6(\276*e+\275\252)\002>\255\0100>\377\207\014\276\212\201\300\274M\354\363\275\357\356F\274\303\302^\275p\234\206=\244\300L\276\366\265\013\276O(M=/\363\233\275\307\036|\275\262\256\346\275\357\316\202\275\212\251$\276\205\235\000\275\r\244\245;\2165\274=\026b,=\024^\216\274\226\320\310=No\212=,\264\361=\023\250\006\273\033\3223=z\2329\275\263\313\242\275\365\347\260=\014d0=\201\375\225\275\014\354\332;T4\327\275\332j[\275p\r\013\276\263\307\274<T\021\342\275\341\361+\276\263\244e<\010\306\244=\005\372\222\275\212\265b=\214s\376\275\271\363\253<z\344\205\275f\251\254\275_1\335=-\0070<\2225\243\275F\032\214\274~\341\202\275\030Z#\276\270\246\313\275\332\275\356=\"v\014\275\t\024\316=Vc\021\274\233\025\207;d\365\205<c\237\342=\201G\353:\n\020M\276jw\277\275\330o\214=\\u\027<H\005\240=^\251\351<\372\201\026\276\272\366\356\275\303\317\356\275\333,<=\366\260i\275q\365O\275\263\211m=(&\245\275\341\204\313\273\227\203\">\377M\032\275\003\231\211\274L\320\347=\325\211\253=\233\224\313=V\213\231<\026\354\224=\326\234\005\274\226C\250\275\255\232\\=\322[\345\275C\311\240=A\362\035>Li\022\276\003y\266\275\220K1>\265h\306=\360\200\371\274b\224\036=D.\200=\302\033->\244\031\273\275\351\312\247\273\270\177w\274<0\253\275\272\3731\276)2\273=\273\203\n\276\235\303^=\265wQ\275\211\306=>\312-}\276\252\\\307\275\324\375\216<GBh\275\373|e\273d\021\207<\356\nS>3O\330=\2061h\276\243\317\301\275\033\257\267\275>\343,\274\306D\311\275\257\021\314\274\365\270~=\251\367c\2752O.\276t\250\326\274a\037\337=p\320\3319\321F\311<\224\023R\274\313\253<\274\025\260\306=\r\306\321=\360\353\216\274\260\001H\276+.\234\2752[\312\274u\035g\2759\345\310=\347\263\013>\272\3523\275\314z\276=0\005\231\275\356\026\311\275\244\n\024\276\334\223q\275\013\344_\275p\361\022<n\017\021\275Y\000%\276<V\232=\250\250\314\274\022w\314=\213\022\330\274T\320\320=\265\341E>A\2261>\321\205V\275s\023\t\275\225\200><\3023\t\276K\206U\275Q\347\201\276\244\233\r=\360>\023\275\211\014\240\274b\223\004\272\315\344\177\276\275\261!\276\030B\340\275\332\376\214=\026\303 =\240\371\354\275\216\373\216\274s\346\374=\345\223H>\326\332\007>\001\271@\275<He=ci8\276A\032<\276,\235\031<\025d\321<6W3>\007T\321\275V\246|\276*,-<\344m\315\274\333\345\243\275\025\0049\276\235Z\244\275S\215i\274\355J\245=($_=H\265\346=\212\245\036\276oC\216\275v\026)\275%\002=\276\340{\266\275\006\314\016>yb\036=42\007\275\350_\340\275\005\312\226=\247\'\246\274\010\232\027>\270]L=87*<\033\262\202=\327\007N>\037\336\242\275\260\277\255\275\232\332%\2764U\261=\302\'5>q\364|=\002\264\021\276\217z\027\276B\364\020=\246\224F>\321\321\364<\362\363\227\276\307\257\203=e\314x<dX\360\275\202\354\213\274}\316e\274\023\036\024=K\274\253<1s\223<\036\346\007\276E\253\323\275\261\023\004=vY\357;.\\7>\340\337\350=WV\351;\234$\005\276`\217)>\013\366\013>@\"+=\342\245V;\221:7\275S\326}\275DK\275<I\037-\276\3419\031<KjY\276\007\327\034\276\256?\376\275\035\240\355\273#`\000\276\302\215\033\276\025\037\261\275\204\036\326=\023p\272\275\371\366\262\274\246\321\265=\316\201+\274\216\177\261=B\216\273\275(\036\030\275M\014^=\3306\005=}\307\237\274\025\344\023\275\177l%>\366\263\r=aJ\000\276\353\225\037>\355\010\227\2757Fd\276\271a\250=\316\2328=\337\374\225==n6\275\031\341\257\276,\200\325=\353e\221\275\342i9\276\005\034\231\275\r\'\3659#\310\345=\t||\274P\310Q\276\222Pw=\375\333B=4\306\024\275\026\225\026=:\307\016\275\323\214\326\275}\257\203\275\023\244\"=\24403\275K\312I=a\234\313=,@\2249\222._\274\346\367P\273\255Lc\275\321\317T=}q\230\275<\216\n\272\245\254\252\275va\247\274#\014\215\271\200\375\016\276\274`\316:\303^\005<6Ln=\025\000];\006\032\343=\307\257\014>`6\326\275ub\004\276G\033\035\275\254$\242\275\006\346\316\275\310n\221\274?\235N\274n\202\365=S\312\264\275\002\025\364\275\264t3>o\313o\2754\016\271\275r\016\303\275\205\245\'=d\221\221=D\353K\275:b\333=\242e\353\275\231\332\304\275\313\376\037\275\226\361\332=\332qE=\n\\\330=\003\017\227\275\333\323\023\276\342\254\032\275\230\241\023=\242\t\327\274(\315\220\2756\014\200\274V\257\314=\220\233\006>y\361\335\275z\365\026\276\213+?\273KbL=\003\033i\275er\220\275\337*\320\275d\022\250\273\260\200\004\276\2377 \2769\004\024=&u\221\275\341\021\300\275\237\334\'\275\231\2221=\305\253\312\275\300j \275\343\001\023\276+\357\271\2757 y\275\236d`\2758\020\341\2758\252\272\275\212M\277\274\316\333\246\274\233\270\254\275\024\355J\275\321s\360=\314J\337\275{t#;L\277\364\275\217r`=\3477\204=%\334\r=LO\000\276L\242<>\370\246r=\356\250\365=\323\016\352<\263\374y<\030\\\037>\344\355\004\276A\262\371=\215\031\265\275\366/n<\030\374\214\273\261\003\001\276`\233\260\275Tf\003\275\004\371\300={$\004>I\rJ\275$d\026>S\234\025>\241\\5<\036\244\323=\016^\026\27681U\276\326$6>\002-M=\232}\334=4?\255=\313\331k\276\224?\371\274(\353\360=\020\236\311\275\322\034\236<\336\023n\275_~\036\274y\361\347\275\367\213D\275\343\321\335<\225\326\007\276\0049\031\274\343\'\032=9\211\215\274XS5>m\337\215\275\302n\n\276C*P\275LY\247\275\007 A\274\300 Z=\256i\002>\240\301*\276\234\006\263\275\030[\345\275\202%h=\037q\213\275\006$\202\276C\376\276\275War\276\217\255k\275\360\266i=]@1\276E\"\321<\021v;=G\254\020\276\214\2208\276\365\023\250\275\205\307\027\275x\014\271=\000\177B\275c\250\232\275\366\200\216\275\351\267\353\275?\322N\274,5%\276\016\003p\275\222\006\315=\345p\222\275\257\276N\275q\323\345\274\321K\253=\226Lz\274\321kf<\"\357\374;\010\377}\274U0\331=\220\352\230\275\314\320B\2768\024\247\275u\313\230=~\3071<\261S\240\274W\271\230<\305!x\275el\357\275N\247\262\273V\263\336<\333\235\272\275\276\3077\276\320LA\275\232!\231=\375\242\310<\256\261c\276\335\313\313=l\313\337\275\305\217\250=\336\275\037\276\0222p\276T\305\274=\001\033\333=\301\234\206=\306iJ\274Q\242\232\275\207\204\322\275Ja\031= \257x=!\267A\275\342\014~\274R\263u\274\220\365\300< X\030=^\201\016\275\004\023\244;|\213\037=\307\031\305\275\001\273/>1\207v\275x\013I\276\035^{\273\'\214\237=h1\210=,R\303\274\"\"2>\272\242\372\275Z\240\352<\025\\\224\274\034T\256=\221a\024>\013\270\217=o=\006\275\207\363\352=\002\342\221\276\342\303\3309\035\"b=\nm\223=)\225\337<(\301\324=|\360\343;\342\204\310\275\277Z\274=\033]b\275\016\374\275=m\306\001\275Sx\210\275$/>\274\262 V=P\250\306\275\313\347e=K\001\353\274h\325\224\275\311\330\307<\310 \322=\344\275E\276\tS\010\276\354\213D\275Us`=\372\302R\275\035\321\037\274f\356\353\275O\262\005\276.jz=\234\205\223\275\270+\000\276\261h%\276\321\350y\275\305\302\312;\3659\030\275J\014~\275\256\201 >\')\217\275\374\355\230=\310\307\215\275\340O\377<@\201=\276s\313t\275\220\303\202\275\325h#\276\236\030\216\275\322\310\026\275]\340e=\263\310Y\276T#0>.7\365\274\264z\232=pu\r\2751=<\276\264,\364\275~\321\217=\250\347!\276w\240\024<\357\007^>\334\261\247<\036\363J\275\345k\t\275\350\0335\276\030\030_\274`t\247\275t\304j\274Uq/\275\245\0025>\346\027\331;*(+\276\206\232A=Mh\223\274\253\246\371\275\332a\376\275\326-!\276 \374\347=\302\273\004\276\323:\354\274m\nY\274u<\024\275{A\206\273s]\223<\334\373\247<\223\220\337<O+A;\346c#\276\020\233\242<\305\300\212\275[\316\262\275\024F\324=0 \360\275\2158h\274\245\3679\275\264E\223=BWu\276d\261\355\275\357d\023\275\001?\364\2750Ov\275j\317\001>\376.\007<\331\253\306\275\267\272\021=\367\367\274<2t*\275\354f\274\275\331\225\311\275\341\034o\275\362p\327\275k\025\311<\330\001\016\276\345\304\272=\210\036\003\2764-\342\275\260\275\313\275g\325Q=\362\335\333\275u{\">E\n[\275\013\334\210\275_U\010\275\335\300\210\275\246\217\'\2755(?>d-\205=*\251\031>\362\0252<\255\233\317\275\317\033\337<\221=M\2753L\275<\341T\013>w\301\243=\013g\303=\327\351->\034\313\205\275\2060\002=\336\353y=\351\337\\\276p\034\217\273\313\227\001\272\215\322\030=\354\212\276\275{\217,<\026\t\205\275y])=\256\251\333=\230\337\365\275\2178\377<4(\266=\346i\303\275\256:\243=\233]&;=(\337=\204\035\366\275\271\034(<\266\031\304=Q\352\371\275\206\001\037\276\305\373.;Yy\000>\201D.=\340\346\001\275t\007`\275\325\004\377\275A^\017=\215^\366=\026ly=s\364}>\255}\022\276i\306K\276\351v\267\275A\343\006\276\336\362\363\274\006-\252\273\352[\353=y\\\215\275\r[I=AsQ\275p\353\215;\270z\016\275\265\337\312<\004\240\313=\355\032\000\276\036-\030\275\314\236\267<\355\315\022>\302\246\370<xk\310\275\013\3524\276\305f\303\274px8\275\321\330\327=\267\301u=\362\242\330=,\327~<\022\344\016\275\0317 =\021\327\026\275N8\325\275\371\3540\276\337\251N\276\354\327|\275Po\r=\304\356\022>G.\276\275zYy\275\204\257I\276\313\344\317\275.d\224<1\220]\274\272}]\276\220\370\301\275\256[\020\275\301\350\270\275\377\216\264=\271\025-\276\236!*>#=\330\274\320\346\003\275\377:}=\342\"\356=\301\207\031=\271\024\345\275\t)\352<\270\035\006\274jrr<\330\245\327<E\230\250\2745\031\300<L\007\230\274\367\330\n>\305\031\000>\037\245\210\275\311{:\276\255\271\033\273\370\331Y\274K[\035\276{\255\227=_f:>k\335@=\245\'\020=\266zY\274\314\315\343=\025\274\367;\301y\262\275\3757J> \033\245=\312\240\270=<.\220\275F\361\226\274\327Y\261\274\3549j=\224\373\2529\006\355\312=\256fL=\027T\322\275Z\220\023\276\324y:\275b\247\264=\002\267\264=\265\225!\276\240\264\232=\264\317\314\275\245@\346\275\261\343\330;3AW\275\325Y\317\2726\212\241\275\256\366\305\275\366\333\t>\250\217\017>\002\002I\273\033Q2\275L)(<\272G>\274PX\253\275\321\370\220<\335\001\000\276}\307\311=(\335S<\347<\231<\304\331,=\000\232\233=a\232\021\275\216t\031>y0\014>\257\220o\275\236\245T\276\334\272\004>\247\257\227\275\022\234\212=\320\215\000>r;\003>\"\371\177=4bK\276\253\250T\276\202\024A\276@\241e\2752A\306=\'a\325\273\205\215`>4$\033>\003B\203>(J\'=\000+Q>\r\205B>\\\323\027\276\237\303\313\275\306\371\367\275Z\225\201=\205\231Q\275\347r\036>\364cE\276^\340\000=\245v\016>\344$\336\275\023T\277=\307\000u\276qY)=R!\247\275>\250\027\276\363w\310\274\276\310a>@\202\233=( \335\275\026\3025=\355\203\026\276\270\341\353\275\027U\017\276G6\272=P\222T>AA+\276\036\361\'\276Hm\206>L\017\004\276\337\310 =K\256s\275\013\354\022\274r\'\023>\307#\r=}\241\223<\021\213\305\273\365\003+\275i\315\343\275i\200G=|\341\264\275\370\033\362\275\026\326+>\272\272j\276\244ba\276\212D\205\276S!\204\275\023\307\236=\005\305r\276\263\243d\275Q9\335\273\362\303\006\276\036\256\237=\273\032\002\275X\014^;D\032B\276M\216\244\275\240\334\032\276!\314\214=?U\020\276\376\014\003\273L\312\237\273\344\237\014=w\241\247<\201\253\234\275\323y\225<#\177\374\274\357\314\037\276\366\033\017\276\253\027>=\304\254\252=t\256\010\276\016\356g>\271\316\330=\252;Q=Z\035\017\276\220]]\276>\237&\276sq\350\275\224\356\354\275\003\266\t\276\r\311\200\276\013\233\244\272\311\275\023\276n\261\347=He\321\274\207\205\201\275F%,\276\353\020j\275\246\277\354<\305\224Z\274=\223\336=l\245\336\273\371\372\231\274\376)\237=8\321/\275\214b\241\275K\000`=\006\362\251\275\312\037\361;1\254G\276\035\351\263\275)lK\276\006\326\326\275\033\005\225\275\205\231R\276\223Q\235=\037{\340\275\26539\276\273\343\"\274\321\353\"\275\273\237\343<x\320\030=\313:\250=-\262\270\275\033\0354\275n\210\013=\342 \220\275\232\314q>\201-%\276\010\001\363\275H\023P\275\346\267\270\272)\222{=]\314,\276\305\253 \276\252\203\243\275vv\361<\321\3010<\320\231\360=\275\325q\275\203\356\243\274Z[A<\201\250\002\276\"\034\310\275\336\356\335=T\234k\275\341\214%=\310\274%>\254\035\271\275\305\210H\276<y\252\275\301\241\035=\217\276\037\276\254\243 <^\277!\276o8\364</.\274\275l\231\027=\220\006\222\274l\007\210;F\367\020=\322\211x\2742\234\342=\321\300\271\274\362J?=\304<\214=|\246\343\275\007\216\344\275\322\375\246=\n\204\260\275\306\024X>\010W\213=D\0365>\375)\225\275C\312X>\2504M\275AG\000>W\347\364=\267\3672\276\"s\017\276U\315h\276\217\264\226=\372i\323\275^\342\200\275\374\225\026=\215\202\261=E\204\n=\361Wk\275UZ@=O\034\302;&=\347=\033\232\363\275>\200,=7c\247=\266k-=\332\272>\275\363\377?=<\364\365\275\231\265z\275@\306v=\257\251?\275\316\241\022=\356/\357\275kc\344\275\265\243O>Z|\275\275g_,= ]<\275\264o\\\275\211\332\003\276\257\230\226\275^E)=\r\264\"=\250\227%<\236\324\n>y\201\037>\347\333w=\327+\324=mF\341;:\217^=\202XC>\223$\214\276\032J\355\275\202[3\2754\224\274\275\212\243a\275\036`T\276\023\244\246=r\361\327=\275\"\023=fIw<8\3047>[\344B=\252\310#\275\362\004/\276\224\034\234\275\307\026\360=\202,