node {
  name: "inputs/b_images"
  op: "Placeholder"
  attr {
    key: "dtype"
    value {
      type: DT_FLOAT
    }
  }
  attr {
    key: "shape"
    value {
      shape {
        dim {
          size: -1
        }
        dim {
          size: 64
        }
        dim {
          size: 64
        }
      }
    }
  }
}
node {
  name: "heatmaps/reshape/Reshape/shape"
  op: "Const"
  attr {
    key: "dtype"
    value {
      type: DT_INT32
    }
  }
  attr {
    key: "value"
    value {
      tensor {
        dtype: DT_INT32
        tensor_shape {
          dim {
            size: 4
          }
        }
        tensor_content: "\377\377\377\377@\000\000\000@\000\000\000\001\000\000\000"
      }
    }
  }
}
node {
  name: "heatmaps/reshape/Reshape"
  op: "Reshape"
  input: "inputs/b_images"
  input: "heatmaps/reshape/Reshape/shape"
  attr {
    key: "T"
    value {
      type: DT_FLOAT
    }
  }
  attr {
    key: "Tshape"
    value {
      type: DT_INT32
    }
  }
}
node {
  name: "heatmaps/firstConv/Variable"
  op: "Const"
  attr {
    key: "dtype"
    value {
      type: DT_FLOAT
    }
  }
  attr {
    key: "value"
    value {
      tensor {
        dtype: DT_FLOAT
        tensor_shape {
          dim {
            size: 5
          }
          dim {
            size: 5
          }
          dim {
            size: 1
          }
          dim {
            size: 32
          }
        }
        tensor_content: "\252yB=\346\354\377\275\253{\220\274o\205\001\273\242\210$>\335\301\t\273\034a>\275\355\367\276=\267\252\236\275\013I\t>\323f\243=\020\222W>\215\323\023=@]\260\275)\374\t=\034l\235\275\236\211\035\276\017\240\351<1\222d=EZ\334=v\r\t\275\035\264\032\275\333W\202;O\215T\274\002\371y;ICN<Y\212\361\2752\030\\\275U\303\342\275\347\300\351\275\202U\213>\204\303\206=\313\324>\276G\201*\276\333\004 >\307,[\275\020dP=\362b\035=\327\312@=#\334\350=\257>/=\266\322W=\225P\010\276\032ZQ=@\264\005\275\363\264\t=?\202\007\274\017\230\004\276\2525\345\274\371\006\240\275\006\240\344={T\337=e\353\236\274v-\017>&\376\261\275\245\333j\276|P\263=H\214\007\275\262\257\264=\363\\J=\0048\264\275\014\2476\273]\0228\276\223\304/\272\264A\304=\265<\006\275B\201%\275\203p\300=R\310\226\275\365\373F\275\363\355\275<\316\212;\276\n\323\332=\240\321\002\276\005,1=i{F\275\244\302\316\275\301z\010>\335V\000=o\334&>;/=;\301e\017\275\364H.\276i\3770\276\0328l\275\274a\311=\366c\202=\235H{=at\355=\",U=u\000\340<{#\037=gy\367=2\026\221<\272=X\275D\302\321\275HU\t\275cZ\"\274\264\203\366=.\027\320=<|-\274\354\234\202;\005\217q\275\315\271\371\275\263\241\022\275\337\027(\276\033\220\224=\320\361\n\276O\320\240=\262\354b\275\022G+=tn\243=\216\323\255\275\207\267\241=\302\002\215=G\345\274\274\230\216\214\274$\340\000\275\335_\372\273\325\210:=\260N\000\276\321\235L<#uq\2731j7=RS\267\275^:\316=\210\021\275\275D\372\271\274\312\334\233<\232<\312\275T\030\275\274U\335\027\276\2135\020>\\\n\022\276FE\304=\r:\204\275x\340\342\275S\204&>\352\365\226=\360{\222\275\225\006\276<\013\266\344<\362\305\030\275\255mO=\222\035\267=\237\216:>K\375O\275\353\305\013>\240\232\362\275\025uH=\3414\"=\020\253\005=.\025\350\275\300}V=\327\267j\275\032\262\037\276\027-\002>V\377\251<\'\220M=\332q\250=\204d<\273+K\177\275L\331\026=\242\237m=\242\372\203=\245\260\226=\323\226\342\275)\2663=Ii+>=\236\020\276\243\330H\275\377\341\343=\302\254\256\275\205I\267\275\023\362\207<X\256@\276\353M\265=3\'\354<[\322\244<\251\206\353\274\'5\310\275\222\3147\274_\370k\273\020~\032\2757\023\230\273w:\005\276\021W\272\273\362\326`\275W\020\331=4\001\201<\003\256\241=$1\324\275\031\007\347<a\2332=\344\251\272=\267\020\017\275\224\021\000\275\004\323%>\310\336\353\275\264\200\205<\n\260\343\275\331\277\225<\203\334r<:]/\276\003\267A>\266N\370;\215\000a==\0012\275\024\343\227<j\235+\274\305x\256=Uw\370=\'\222/\274e\273\274\274\224\344\003:\025qX<R\244\014\276\360\362\227\274\203-s=y\2119<\247o\022\276\033\334z\275,\336\310\2759H\376=\264c(\275\035\214\">\311xs=\251\243\236=\307.\244\274\347\030\331=e\352e\275\353\312\260\274\341\014Y<\364{\t\274J[z=\266\010\377<\360\246Y\275;\177V=\210.\302\274d\352\027=\220t\236\275 ,O\275\203\263\355\274;\246\314<O|\330\274\232\217\254\2751\224\n<\355\'~=,\213\257\274\215l\334=\227\226;>\275>\247\275\221\270U;\247\204\336\275D\343\211<\004\\&>\267\2461\276\334\371\007><\353(\274`J\313=\215\316\355\274R\374\370=\210&=>\346]\302=\0317\331=\204\023\346\275\315\254\224=p\353\302=\211\0149\274]\326\232\275\325\306\222=f\217 <\216\250/\274\376\301\332\2754\212\341<f\212\232=\226\307\001=?\352\r\274\3658\241\275\024V\211=J\255\n\276Qw/\276.\312\002\276\212U\372\272c\300\356\274vY\000\275\"@\367\275\207\204\226=E\0276\275\330\310\345=\236\372\230=\270\022\300\274\225\317&=\020P\243\274}\374\226\275\313q\323\274Lt@\276\017\233\377=\201\365\327=\377_\024\276fq\274\275X/\356\2741\324@\276\222:\032>\344^\022>b4u=uK\016\276\360\277P\275\257\262\243\275\300\027\020>\007S\222=?\217*\276.J\361<s\306\205<Z\207\315\275!\227\001>\004v\013>\027\205\315=\272\362\262=4\203\004>\261\031%=&\001\330=wN@\275&9\251=\022\221\223\275\306\036\361\275\214\206\232=P\231\333<8\210\n\276\365\321)<\034\377\031>\227\362!\276B\316\016>\215\363\030>B\\\025>|\206\201\276\2662\013>\205\214\315=\252\250\326=H\307\020\276Z\324*\276#\214 ><-4\274\320\252\350=\257\2410\276z\'\255\275\324\026(=\007\302\202\273z<1=\364\343\337<\253\323\033\276h\342\"\276\213b\304<|\020\026\275\367\026\267\275]\2154\274\335V\301<\271rX\276\300Q\273=\356\222\364\275n.=\276\347\245\177<\003\301\277\275M}\004\275\201)\231\275\034?\341\275z\242\030=\251\370\230\275\312\272D\273\217\230Y\275\237\325\000\275@\375\016\276S\2226\275\027QE\275\201\006\216<\336C\'\272\367\341\232=dn\003=~u\370\275]\302\'=m.\327\275\361\004\005>\274\304\356<\353J,\276\230\203\310;J\257\014<N\021\301<\237\305\t>\303{\021\276\036\376x\276\034\257\307\2758\304U=F\245&>\222\335\207<\343\327\336\275\346\177U<\214\017\247\275\305\270\217=\343t&\275?P)>\346_]\276b\372\342\275A\216\200\275-\211\002\2768W\200\274\351\351\337<\272\261&\275\2407\025\276M\035p\275\n\2479\276\255\301\330<$#\336\275\206P\311\274\244\2257\276\353\300\207\275\030\215\375\274jc\315\275\026\207\017\276h\002\\=\271\215\200\275\277\202G=6\274~\275\\\232\245=\036 ]\275\275\256\206=\366T\340<\235\355\216=\245~\226\275\327\277\357\275W\302:\274\337??\274$Y\t=\356\273\320\274\341\365\312<#)O\275\335D\265=VU2=%b7\275\311\0007<E\265z\275\0029\313\275\332a\177\274`\2718>#Q\271=\3374o>\205-\266\275\246G\">\204\213\334\275o\202\307={D\223\275\324X8\274\217\327\246=\003\304\211\275\213\'\225\274\365\002\013=\324A\013>\274\346\207\275R\337\220\275\343p\232<j\326<>\227\2463>\030\r\t\276\246\3535\274*\000\261\275U\302\024=0\373\214\275\371\247R=\233\007\214\274\345\005L\275\354\272Q\275\251\274,;\210l\010>~\004\324\274\230\203O>\000\223K\276\303zr=>Q*\276\235\007\206=\274lg<\300\022\016<(\352\357=\212\210\304\275u\314\222\274\333QI\275\340\221\246\275\365\246\t\274\376\306\375\272\"\036\326<OR\r>96W\275Ps\202\276@\377\251=\\\336\025>/\330T<\347\027\311<A\205\255\275,\2251>\276~\217>\346\267\">d?\355\274\252c\270=\023\211b\275\000\200e\275\354\220\013>\1771\006\275\021+\213=|1\240=l\377\353=\303\2617\275\005\304\035>\242\345i\2763$\254<>\377\345=\306\270\346<\0035\222=\304N.\276\177I\020>\240{;>\367\206&\274\274\265\333\275\333\356\226=\320:\036=\311ic<7\341\257\275\310<L\275\314b]=\016\'\316<\376\273\252\275\301\203\365\2753\035\021\276\221 L\274e\004\314\274\277]D>G\324\360\273\334\"\204<\205[\317:\331F\363\274u\232X>\307\335\005>m\2622\276)6/\274\347\006&\276V\316\036\276\370\007;\276\362\374\364\273\t\005\212\274,\347/=\"\326\207\276\362\332\027\276\213`\t=\007\376\264\275\367\300\375\2758\t\355\275\235\254\024>\255\'\251\275\321\301\366=\216\357\032\276\327\305\342\275`\236\236=\347\357\233;\253]\306<#\224-=6c\357<I#-=\360\230\354=\203\253@\2734\366\031>F\000\217=J\300\251=3\tk\276\235\351\030\276\373\034\336\275B/R=\316\336\202\2752x~>\241=\321\275Rm\213\272\004C\240\273\230\022\244=\020u3\276O\320O\275\235\032\n>\317\272>\274\031\361#>p\205\205=J\367\310:qa\274\274f\024\251\275o\256\370=9\326m=\t\215\233\274\271\376\331<~\245\374\275\027A\203\275&\210\244\275\031e\001>$\221\003>\r\362\370=y@R\275Au\275\275a\273\212\275\0106\\\275x\016m\273\342\351L>\257\211\007\275\374\371<=\250\203~<\355\010\177=\366a\235\274\252\220\">?\003\261<\033\214-\275B\034\023>\335IP\275\310y\332\275\320\350I\276\213WF=t\0218\276G\367\215=\276CA\275\261E\237;$d\315=\023\362E\276L\223(\274\347\223\360=o`\027\2763\200\371\275\003N#<B\346\246=c\220\350\275{\033\234\275\351\305(\276-V@<\246\270\320=\340\246\177=J\270\373\275\217p\300\2757\204E=%\n\001>Y\251\243\275\204\247@\276\253\017p=\\\213\214<C\244\347<\000\377\211\275\231F\206=M\346\014>\033p\273=\265\210\241\275\346(>\275\321\345\026\276\354\305&>\2631\222<\274\220P;_*\307=\342}\007\276\311\212]\276=9n=\nC.\2760v\";\306\341\313\274^\212\217\275P^V\276\200\222\255\275\263\216\n>\360\303m=\216\343\005=P\324\376\274\320\272\001>\2413\344\274\2009\001\276\242\236\334<\021\302\206=,|w=\333\202\001=L<\030\274\314\001\023\275ECz<\320\026\013\276\353\233\243<U\221(>\004\346d=\036Y\243\275\372,\313=\021\2635\276{\317\215<r}\t>Zt\355\273\315\244\005>NY\230=\232\272;=\343B\371\273T\037|=\3105\305\273\202UZ>8\353\037>-PU=\275\253\351=\2177&\276\320\036\301=s=\251\275\275q1=&\224$\274\210\316\002>s\277\026>\002\320\333\273\344rs=\350\236\221=4\234\311\274t\301$\276{O\335=\354\241\314=\017\353\377\275\231\344\312=H9\241<\2313)\274\365\342\263\274Z\366\020\276\253\266\215=\377\365\234\275\020\211\351=\322\316$\275=1\026>\336\276\213\275\367\241\335<_o\277=\354Qf=\326\231\017;BB\001>\357\3070\276\227Q\232=\337\362\344\275k\301\007=\021`\022>\033\326\243=\243\350n<\226\364V=\275\324\027=\024\341\251=\367jx\274\274\"\235=\"e\213=h\002H\276\324G\201<,\313\233\274~\352\016\273R\272\356\274WRU\276h\r4=\263Q\266\274\223\3366\276\235\314\351=\t\016(\276N\264\022;^\360\017\276I\222\333\275@\320\214=\273d\266=+q\034\276\326\035\212\275{Q\216\275\3366\023\276|\325A=\"\230\220=\245\276\016\276Dz1\276\2103\014<\340\377\341\275\213\n\363\275\035\206a=\267=\234\274\252\253\277=\237\010W\2755\246Y\274\246\001=<\336\364\362\275/\357R=\222\207D\274\237\026b\275\364\303\310=\020h\214\272\304\372\302<\347;\271\2760\364\016\273g\367H=\361\253\241\275\265~\363=\211\177\360<I&\234<\352\3527>!%\215=LSH\275\027\345\356=\233\263\375\274I\262\251\274\303\342\025\275\340L\'>\326\214\216\275\251\3312=+n\013>"
      }
    }
  }
}
node {
  name: "heatmaps/firstConv/Variable/read"
  op: "Identity"
  input: "heatmaps/firstConv/Variable"
  attr {
    key: "T"
    value {
      type: DT_FLOAT
    }
  }
  attr {
    key: "_class"
    value {
      list {
        s: "loc:@heatmaps/firstConv/Variable"
      }
    }
  }
}
node {
  name: "heatmaps/firstConv/Conv2D"
  op: "Conv2D"
  input: "heatmaps/reshape/Reshape"
  input: "heatmaps/firstConv/Variable/read"
  attr {
    key: "T"
    value {
      type: DT_FLOAT
    }
  }
  attr {
    key: "data_format"
    value {
      s: "NHWC"
    }
  }
  attr {
    key: "dilations"
    value {
      list {
        i: 1
        i: 1
        i: 1
        i: 1
      }
    }
  }
  attr {
    key: "padding"
    value {
      s: "SAME"
    }
  }
  attr {
    key: "strides"
    value {
      list {
        i: 1
        i: 1
        i: 1
        i: 1
      }
    }
  }
  attr {
    key: "use_cudnn_on_gpu"
    value {
      b: true
    }
  }
}
node {
  name: "heatmaps/firstConv/Relu"
  op: "Relu"
  input: "heatmaps/firstConv/Conv2D"
  attr {
    key: "T"
    value {
      type: DT_FLOAT
    }
  }
}
node {
  name: "heatmaps/firstPool/MaxPool"
  op: "MaxPool"
  input: "heatmaps/firstConv/Relu"
  attr {
    key: "T"
    value {
      type: DT_FLOAT
    }
  }
  attr {
    key: "data_format"
    value {
      s: "NHWC"
    }
  }
  attr {
    key: "ksize"
    value {
      list {
        i: 1
        i: 4
        i: 4
        i: 1
      }
    }
  }
  attr {
    key: "padding"
    value {
      s: "SAME"
    }
  }
  attr {
    key: "strides"
    value {
      list {
        i: 1
        i: 4
        i: 4
        i: 1
      }
    }
  }
}
node {
  name: "heatmaps/secondConv/Variable"
  op: "Const"
  attr {
    key: "dtype"
    value {
      type: DT_FLOAT
    }
  }
  attr {
    key: "value"
    value {
      tensor {
        dtype: DT_FLOAT
        tensor_shape {
          dim {
            size: 5
          }
          dim {
            size: 5
          }
          dim {
            size: 32
          }
          dim {
            size: 64
          }
        }
        tensor_content: "\332\327\347<\007 \314\275\006~\244\275h\3774\275\364;\235=\233\306\251\2748:\323\275\261\t\035\276\020HA=I\0204\275\277\213\340\275\331v\325=\037\373\206\275\234!\344\275\256\221\023\276%\300\300=\364\325\020=si\030\274rrc\275@\235\007=\214\202\302\275\306P7\276.|\230\275\225\316\205\2768\352\252:\2372\242\274l\r\345\275\371\002@\276\276ZD\276!!~\275\227\251\017<O\221\031>\004TL=y\231\036\276\211\014\230\275B\030\014\276\206\253\004\276s\244\001\276\374\020\351\275\216\033q\275\005^U=\310\253$=Z~V\276e\002D\275_\025\336\275\253\2152\276\035L\252\275a\223\373\275\327\303\004\276\301\254%\275:\311\237;Ts`>\261U<=Z\275V\275\024i\373<\035\367\010<\021\204\030\275\306\265a<w\274N<w\271\277\2755\343\316\275-8\t\276\215[f\275\210\252\340<\313h\372<w\264\234\275w\325\013=6\3746=E\221=>1w\200=\352jG\276z\303Q=\033\273\356\275<\310:=C\370(=\236\246\367=\025\217W\275\203\036\201=\314wr<kR\244;;\376\277=\016\333\343\275\204\251\206\275\002V\317=\t)#=\200@\263<:h \276i\214\341=%YE=\341\005\006>\367_\350\274\215\203\210=\361\343m\2746\260\227\275I\262\342\274\203\357\322\275\023\317\256<\234\345\301=\340~/\275\206\241\n=_~*=\314\332\260=\206\225\026\2765\374<>\354\r\213\275\205\356\255\274\275*\253=\212\255\200=\272?\007>\354\324\204\275\372\243\222=\313\367\314=,\\\360\274\023\211\247\274\325s\302\275\210\213L<\356eW<\271\020a=\311{\304\275\253U\237\275j\032\246\273\214\301\352\275\336\233\230\275\031\370\334=\355\035R>z\3134=\301\010\211\275\362\253\231\275O\210[\274\3720\277=|\005\307<w\355\217\275j\317R\275\300\242\310<\332L\026:\236\245|\2749\305\026=\326]\212\275\315\362\032\275\232\372n=\213\271\236\275\272\030\210\275\2745`<\352\222\342\274}\014\366=Kh\272\275\311\220h\275\367wP>\204\237*\275h\220+\2757s)\275P\365\320\274\033\232,>h\330$=P\336\273;\260J$\276\264\217\363<|\366\205=Mc\244\275)\342\007=\222\244\371<\207>\210=\335\375\345\275\376\n\003\276\320\256\000\274/\277\241\271\337)+=\3423\344=\354\375\221=z3\221=\013O\014=\226\317\242\275\222!A>\322\326\034=\2335\353=>\020\232\275z\306\003\275\034d\363=Cx\227<\035\001\203=\273\206\372<\216\312Z\274\225\014)\275\031\271;\275f4\265=\331X\276;x\237\257<A\323\343;9~\206\273\\\215\320\275\230B\255\275\233V\210\274\254q\233\274\020\220\257=\317\376\215\275\313\273\">:/\214\275\344\037\">a\234\200=F\245\003\276\251\344\201=,#\004=5K\244=\276k\264>]6\014\276\005\250\220\275-\007\005>8\363\022>\340z\230=l\222c\274\275\376\202\275@\303\200=Y\317<=\345\022C>/=\351\273\006F\320=Y\224\226=\203V\234\275\234b\276=\320|S>\230\364\217\275\231\024\r>\035\312\025\276@\373\000\276zw\325=\257|k=\305\214\346\275\rW}\275rs\345\275\353*\203=z\\\370=u\356\002>\245\2664\276\251\335\361<\000&\207=\220\217h\274!\035\241\275z\240G>\034\220\303=\366\264\253\271\221\301\344\274\335\276\234<W\321\033>\344\315\246\275-\263`\275~\024I=u\201.=*e\327<[X\302=5\210(=8\027\325\275\311(\306;\241\251\211=\2610\343=\243^7<\234\226P>\355\001\251\275\005K\211=\312\201\371\275K\237\312=\300\250H>\001+\364\275\200`/=\222\322Z\275\370b\274\274\230\323\324=jZ\373\274\202\014\256\272\300\311\021=f\276\226<\252\244\010>\361\204\244<~VI\274\370_\323=0~\271\275\274;\353=:Z\242\273\230\031\326=\230\037\352\275\241b\317\272\337+\261=\271:\262\275\030\377\306\275\210\251\245\275\250%v=\334\003q\275b*8\276$dD\276\224p\350=^u\356\275\225\2030\276r\376\311\275\0321\004=\001\004\326\275\347\274\206\274\321\373\225\274\267\334>\275\003|\204\275#\316\211=\350\210\021>\226\210\024=\372\3734=)\256\251\274\266\360\322=\375\254\235\276o\252k\275\347\r\375\275^ \240\273\225\200N=\'\305\203=\366\037\207<\2455\253=\340\271\001\275\014\275\206\276<K\221=\\\273\235=M\364 \275t\306b=\020\276U;DI\021=\264|\214=A\206\252\275@\342\211\275o\0217> \266\314=3?\017=\005,\230<\260\256\236\275\301\361\223\275\342\376.>\226\327\000\275\372*\323<\343g3\275\323EV\275\007\373%<\213\244\225\276\027\256\021>\333f\246=\2470\305\275y3\334=\254\242\003\276#\r{<?W\255<\366\222\006\276[.\210=\264\277\205\273\241\213%<\024\273\302=\231Q\344=N\330\021>\370?\027>J\307p\276]\320r=rL\\=\377;\271\275~\246\204\275\264\315\027>\363\305m>\022G\360\274\010\344\237=\003\226\214=\325\320\\=9z\337\275\305H\344=\362u\344<\235\204\037;\336\202\247<;\305\017=\373\363\374\276T\277[=W\372\244\2756\345\353<\233e\263=O\272\331\274ZR\215=\343t&\276\275<\036\274^\017\247\275\022\002H>\314Y\246=\214a^>l2v>\265H\215\276\270\271+>b\3204\274<vM\274\031\217\031\274H\316P<\230\007\r>\362\312_>\234\004c<\002/\353=\233\272p\275x6\t>0\274Y=~F\212>\r\305.\276v1\364\274\035$K\2754\323.\273\267\255<=\224\200\002>\336\233Z=\306\346\270\275\240\237 \276\363*r=\r\330\275\275\352=\000>\220M\006>\302\036&>->\313\275\027\325\236\275\317\205$=\005\276\r=\362\342j=\252\036\244=\220M\231\274r\030!>\253o\017\273\014sO>\310\020\216=T\2349>\020\010\222\275(\010D\275\276_ \276\213\000\246==]6\276\032\024o>/b\301=\264\332\010>\275#\272=\371\303C=\236\324\007;\001\033\334\274\004\t\321\274\001\265\035\273 C\005<dQ\336\274\372I\371\275,>\002\276\2355\262=O\310O:\265\357\016>&^c=Z\341S=\2475\002>\204\350\032\276M\351@<\254V\307=R\361\376=5\214,>+\031_;\243\002\222=\355Y\355=\203\034\317=\211Z\303==\223\375=\266\313\001>\242\304\222\275qq\204>mv\231<(YM>`\024\353=\201L\021>\330v\016>E\250!>\264\366\017>\365,,\275a6\217\275\331\017?\275\375\311\271=\031h\t<e\371=\275\211\272\302\274\246\301\203<T/\005>\207\010\257\274V\3660=\262XT\274\220\352\212=g\027\\\275C\310z\275R1L\274\324\000.;\321\'&>\214\337\364=\220\256\211=mQ:=<%\253=r\210\316=\305\254\323=_\017\370\275\3648\336\275\372^\376\275x\302M\275\275\3508\275q\022\020\274c\224n=^\267p<Y\260\310\275\320\274\024<\007\256s\275\301h\213=f\315\211;\363\027\000<~\177\022>\025en=\306\243\261\275\230\351\003\276\322\343\202=M\017L<\205\362|\275.n\007\275]\233\030=MF\323\275\261*{\275\334\3038\275\177\235\376=]\226\272=\374\"\004\2761x\270<\370\035\303=\372\326\004\275\272\'\307<V\320\025\275U\355\020\276\254\330\264=\202\2667=T\214\301=\375M{=n\023\360\275\224\370_\276w\247\307\275l\275\351=\332\363\001\276\302|,\274\225&\003\275\215dj=\367=E;\335@T\275\201\251\216\275,\t\021>v^\310\274\034\272&>\301\332\277\271;4*\274!\233@>\223\324\235\275!\231\206\275\335\204\217=%\3121\276]Vj\275\273Y\034=~!\027\276\237b\003\275\022\233!\275\013 \256\275w\\\002\275iB\343<ky\351\274\007\254Q<\260:\203\275\316q\340=\225\340\225\273\272\316\002= \237&<\262L\266\274\324\305=\276\022!\020>*\207<\276\216;\301=\270q\207\275c\325 \276\270\303\027>\020\207.\276\335m\005>\375\332\334\275!\372\230\275I\254\327<\022\007\266=\365\332\323\275\302%\344=<\031%>\200\246\026>\320_\034=VC\025=<V\220\275[\0300\275\025Q\030>4\340\354\275\224\366=\275\017{\302<\263\301+\276\221K\266\275{\267\255\275\216J\324\275\023\3651>\010\024Y\275\210y\303\275=\010\364\275\2502\304\275<Z\313\267\267\366,\274n\3425=\002S\340\275\377\2330=\262\247Q\276\027\264\025=\325\212\n\276\356\025.\275+\200]\276\177\317\336\275\220\205\345\275\356\207\037\276#\227m\275\274\375I=\333\024\250\275tD\207\2749{\234\275?\333/\275\354\273]\2758\361.\276D\014\310\274\020\201\355\274\242/\016\273\025\226\010\275\232$\223=\351HM>\265xm\275\225Q\016>\317LA\276<O\220\274A\311\224\275\221\275\r>,\205B=\366kI<\271%J\275\263&M\276a\t\242\275V\246\306\275`hR\276lw\317=%\223\254=*e\006>:m\t>\367\262\032=\241\362\344\275a\362a\276@\273\035=Q\372 >\212\3744\274\266\016\246\275\257\245C\275\354\344\301\274\022\335\257\275g8\034\273\265\334^=F\277\374=\266\014\243=\331@\270\275\210\021\206=\010\364\256\275\365\202o=\374>\306=6\001\200=,3\301=\361\004\227;\232\t\204\274\312\366\215=\2645~=\000\367\234\275/\020\'=\030\343\265\272\001\367\001<\025\030\271=\244%\014>\276\334\\<\374\3610\2745\177\265=]v\342\275\034\001\'=\340\345\222\274^\277\250\275D\267\343=\263\246g<i\327\335=\300\035(\275b\n^\275~6,\274\346\021\233\275\013\204\322;\233\2739>p\355\250=\363\202\006\274\022<\346\275\031\033\007>_\343\361<\352\2156>|\250\032\276\005\251\211\275P,T\276\007\000\337<ip\300=\237\325\262=\\\032-\276\202!\204<~OX\275<\206\200\274\026\226K=\221\3008=b\017u=\247\355\222\274\005X\035\275\212\3546=K\"\016\274kP\264=\005@B\276p\322\035<7ax=C\223\246=+\351\243\275L\026\314\271\366o\010\275\225\361\234=\216M[=Px\222\275\230K\030\276\220\344\306=\203\261\235<\271\265\227\275#\272\237<\206\233J>\212\335\031\275\3467\252<\343\332)\276W|\315\275\311\016\276<\321J\222=\347*\201=,q\203\274\254\254T<p\033i\275-\260\022\276<\241\225\275h\037-\2768*j\275\020\013!>V\236<=\177\215\014\275\032\337\303\275%1\224\275H\352\032>\314\026\340;e\337\316=-\316V\274\367\323D=\364rF\276\374(\372\272\352\t\334=\257\243\010>\2635);\344I\004\275\300\005\242\274\214\005\177=\250d\017\276w\320\341<\313\177\263\275\0138\302\274\232\234D=@E\274\275\206\240)<\247r\251\275W\2765>U\321\372=\3271\t>\334\3022<\0011\301\275\242\343\216=\243\377\245=\316\316\220=\027\257W;\005\353Z\274bS\263=9\210i=\2220\217=\372\346$>\312\004\313=%\222~=\200\3302\2765\345\250=\373\300\320<\266\224O\273\022\205\213\275\234\376\331=mx\302\274\334\344\275;\340\367Q\274r@\010>H\217\243=\304<\177\275R\331\225=1\026\025=h\354\307;\246\363G\272\304\222\313<\351\346\034<\n\203\221<\017\255\241\275QOT\275\340\304\333=|\322\202\276\361\333\225<\272\274V\274\017\366\271\275\234\\\221=\373\263\304=\004\016>\275\354\344\206\275\353\313\034={\216\374\275z\307e=M\366\341\275p\020+=.\370\024\276\271}K=N\312\307\276\021kf\274\0256\202=!\273\261=\364n\374=\024\356\223\276\332\246\326<K\030\030=\275`O=\274W\036\276W \007\276\377k-=\030\336\205>\227f\322<\326/\003\275U\337,\272\031\357\'>o\224\261\275\203\334\235\275{\307\230=\323@\031\275\\\273Y>\252\346\336\275\350\332A>\037\234\304<\324\213N\272\252\225\253\271]|U\275\237\353l\274\204/\267\275\256\010\037\275\177(\226=\272\244\343\275\000\032/>\024\361 >\231 \014\275\245\305d=\321#\224=\277.\276\273\251\335\221\275+\014\001>kl \274\314\357h=AG\317\270k\356\316\275\036\224P;\303|\003=\037\310~<\310u\242\275\210\206\256\275\366\267O\275(\032_\274\311\306~<~\231\'=\340[@\275*\212\240\275\3742\214\275V?G=\210m\214<\213b\377\275\020\233\301\273Z W\272\323\371\374\274\226\302\377\274u\242\n>\303z\221=g\276\215\275\036\231\035\275\211v\214=\356\260\032\275\032\0043>\033\002\021>\251\037\025\275z;\031\276\331@\002\276\247T =\304\231\026\276\321g\024\274\262iH\276\205\335!\276HR\262=$\r\367=`c?\276\026\276\337\275A\205]\275\273\033F\274\262e\210\276\234\241\241\275\224QH=\233{\215=AM/\275Y\277\203=\346<\203=\374\0136=Q\323R\275\372\303\274<\323\221\355=\002:\017>?\r\207=\217\025_=Pwt\275\356%\262\275\327\232\013<\000\354\333\273kv\232\273\305\237\347\274\210\252\007>\265 \270=@\306\277<{\341\201\275VZ\327\275\006\217\230\274\350\t\372=\346\214\007\2762KF>\357<\350=cx\000\275r\024\205=\025EU=\251\330\336\2751a\241\275{N\371\275m\375h<+)\020>\025\t\013>\272\202\035=q\330,\276\250\357\363;\352\320\354\275\\\253\300=\235P\345;\357\336-\2753\376q>K\224R\276\267\250T>\332\035\177=\245H\230\276C\333\226=\227&\307\275\037\032<\275\357\250\200=\226OP\276y\017}=\246\211\036\276\030\367-\276\352\371C\276\237E\351=\231\341\025\276&\266\030\274|\350\333=\334l!>R\234\266\275Nh\014\276\'\331\335<?\321\244\275\021\245j=\211+\360\275w\n\313\275 m\240\275\264\361\313\273\373*\334\275\327rY>\014\200\314\275\006\241&\275\003P+\276\242P\345<\321\220\304\275Q\274n\275\240\342\201=\247\325H\275;Op<\356Im\276^\203\241\276MaT\275\223Z\301=\214\\\251\273\313\376\354\275\333\367C>Oj\024\276\274\301\t\276C\004G\274x\343\024\276l\377 \276\334\004I>\310\3170:\253\3420\276u\326;>[\267\225\275)\022\347\272\277\261\205\274\3239\365;\013)\021\276Z\301\251>\220+\317\274T%%=\031\270\310\275\222Y\240\274\214\004\341>\035\200\020\276\022\273\313\275\264\320\'>\354F}=\306\331i\275\306Yk\275\235n\017>35\323;b\340\253\275\377W\020\276\301\276\275=kE}\275\014\240H\275\213\242t=,\204g\275)\342.=Vh\366=\370\261\276\275\311\307\036;P\030\373<\221z\220=C\247>\276\201\236\215=@\023\204\275\372gt=A\371\010\276\210\020;>\004\205.\275^I8=&\325\014>\347\205D\275\025{\264<\376y\301\273\n\315\027<\277m\265\275\252\313\266;\233/7\275gE$<\003\276\004\275\311\231N<\005\016\237<\353\3357\275\370\0175\275\307\332\030\276\253\025\000\276\254T\241\275\253E\370\275\003\376\027\275\251\317\004>\3243\017\276\"c\t\275\266E\260;\377\356L\275\322\n\201\274\350!\303\275di\r\2763c\203=\241\0333\276\252\233\274<\270h\241=\325&?=z\027b=\361_Y>\346VS\275>\017\240\274\332\036a=}\351)<\232\037x\275\325\326\377\275\025~\210\274\353m\261=`\023\336\274\366\265\215=\316\207\342\275c\367\020<3\356\243=\312\034\027>K\"\t=O\262\360=v\313\235=\303\241\003\275\343\226\342=\214\372\232<\030]\217\274\223lp=u\0132\275\315k\323\275\304\204\377;#\314\215\275\\\274\037>\030\001g=~\337D=\373&A\275q\214\333\274\202_h\274D_\207;\2117\022>\254\032\325=\214\213C>\315\273\330<\336/\004\275\344]\026=\224\306G\276\206\331I\275\324\307\362\275\026\273\246=#]9\275R4{=Z\313(<0\323N>\337\375*=c\001e\275\'\007\201\275=:U\276\305\342\301\275\305\371$\276\347\336\223\275\336[\357=7]\273\275\225\237);\020\323\210\2740\271\371\275\032\270\310\275\353\245\313\275vr\005\276\t\201\323\275\010_x:\215\331\307=/h\034\274<\373\250<gC\327=(\367\237\275\n\357\">t\327\t=o]2\274\270\254R=K\030]\275>7\214\275K\246*\275D?\236=)\0370\2765F\033\276K\237w=|\310\337=\342\215\313\273h\240\332<\365\260?\276\343`\313=t\\\343\274\326~\t=6i\037>\300\330\251=%\006\007>!\334\342=\002S\315=\231kD\275\325W4=N\250(\273\240\004\340=d\022\255\274N(4\275\301\242o=\335\261q\274kT\247=\030\2704>\375\377\275\275\t1\252\275}\335\333\275\222p;\276\351\231\332=\321.\300=g6\030\276\240\312\034\275\204\360\250\275\354\244#\2762\355\304<\252P\021;gA\n\276\231\374\243\275\214\330\217=\310\251N\274\202\377#\274-\347\376<\033z\240<\312\233K=\322\223\274=\371\215\035\276\346\354Y\275\367\311\025>\233\323\211<\232Ue=\333\212I\275\206o\263<\n\335\035>75j\275f\347\n\275@(\215>Bt\004>G\255\r>\363\032\273=? c;W\302\333=6\377\026>\300\226\326\275\27492=\014\227\305=\312\010\233\2743\007<\275\307\313\023=\271\3725\273}\"\216=\370I\021>\300\220I>\323\257\213\275f\2653<\023k\020>\302\304T\273-c%>\211\366f\275X\0365\276\332\006\001>=\273\347\275\272\220\366\275\223\357a<Y\027\342<\252k\365<V;\201=B\"\372=\002C\013=\003\227\024>Op\240=\031P\246=Q,\251=S\370\277\273e\007\332\275\212\006\222<\001\310\034\276\226X\245\272Ta\314\275;\323\342\275\273\320\325\273{\036<\276\003\321\024>$e\214\275\016\306Z=\013%[\2753\324\032>\210\276,<W\362\222\275<\364\3039\255|Q<\260\357D\275S\214e=B8\371\275\005\241\322=\273\3327\274O\310\310<\354\241\223=N\006\000\275@\\{\274\321\252\340</L\302<H\021\201=\346p\270\275\317@:\275\264\243\024>C\372\220;\374\355*\276G\001\022=\354\212\036>\250\324\366=\016\016\334\275h\025e\275\371\300$\275\324\233\201\275\236\246\214\275F\'\227\274\215\224\323<z\233\233\273\276\200\337=\177\273\207\275\360\035\266=\324\230k\275\233fe<\211\311\344\274\035\013}\275\273\307\345\274f\0373\275\331\331\361;\224\265\001\276UZ\306\275i\233\002\276v%\255=\255Y1>3\264\\=:\212_=p\021\376<#\002=\275`C2\275\364\366\315\275\366C\304\274\010\364\340\275V0s\275\327A\213=\362\351\326\274\214\3306<\251\262\231\274m.\250\275S\3052<\005\304\252=n\311\035>\000r\376\275\217\205\333\274\226\270\017>\300\2366\276Q~\214=\217\033\212\275\201\255*>C \216=z\364\025>\221\303\341<\342T\267=|5\205\274\260\337\235=\302\266\252\274=vk\275\367)\354\275\322\3022<zM\356;g\356\013<aF\031\276\303\'N>/\'H>i\t\365=}xv=xA\202=W\r\244\275\261_\315\275\234\316\004\2761\332\203\274\003\333\016\275\253\215\212=\216\355*\275\253Z\n\276\0105\245\275\330A\210<\002@\221\275\266\344\206\275UA\342=>O\342:\004\210\020\275\224H\024=\006\016\252\275\331\353\000>\007a\371\273\375|\316\274\270\246\306<u\033\377\274]e\'\275N\2142\275\355h=\276\254\303\214\275\0109\216<\375ke:A8F=$:\301=\035\331\033>\216K\207=[\3461>\020q\376\275o!\023\276\005\305\235;P]5\273?\220+=\257\002\024>-0!>\327\333\324\275G\n\373=\216\375\252<\244\213\305;\025\3032<\201\203\323=#8\376=\312j\020=\207\024/=\2049\031\275J_\264\274\325\250\240=\300H\016\276\377\030\016\274Mk\361<\t\221\325\275\361\203\005>\036\222\267:\324\t\324=W\216\333\275c\234\206\275\350\350\246\274h\344q\275IsB\274\343{\202;\217N\275=\000}\342=\312\327B\275\354xO\276n;\010>.\032\037>\250\334.\274\376\270-\276\313\033\253=\313\356\307\275\342Q\031=?\252\357\275>\340*\2759\246\035\276\266\360@\275]\241\366\275\255l =D\302\310\275\236q\021\276\344r\301\2758\253!\276\244j\024\276O\261\372\275\301\226\353\275\211t(=\025k0=\230\373G>\350\315\177\275\216\341\340\274\242\347\373\275\257\240\257\275\001\211\241\275\034\337\177\275\n\316v\276_C\317\275\277E\350=\000\242(=\"\340<\276\247\267\254\274\216\305\355\275bX\002\276F\032\206>\216\237\006\275\307o\217=\310{\302\274\224\254\016\276\335\000f>\361\224l=\210\t\257\275\221\025f\275\030\265\r\276\036\273\334\275\344\305\227\275\237\247\331\274R)\005=F\267\211\274\006\373\250=\r\341\233==B\">A\254\365=\262\340\364=o7\004>C\001\352\272\017\247\323\275\310\357\355=\202\036\033;8\247$\275\3636\356<]G\355\275\271\367\006\275\240\353\025\276\203\304\270=\004\302\220<1!\331\275\331\347\030\276\243\260\245=\006\247,=\017j\267\275\203f\344=zR?=\255\005\226\275\375\243[=Z>\\=y\3353>\373k\224=\034]\320<\226j\215<U\257\r\276F\213\235<\302\313<<I\252p\275\177E\037\274\347c\n\276C[\314\273\317\261\331\274\374iN=.\260{=\220)\225\273>m\303=U\032\345\275\372\'1>\330\3612\276H\363\323<(\372\353<\310(T=\306\3325\276\253\242A:\356\305\032\274{a\303\275\022\244\325=T\'\264\275\316{\326\275\322V7=+S\212=\253,Y>\366\252*\276s\273\032>\247\3515\276\317k8\276\033\260\014\276\311\247\003>\006\333W=\244\237\003;\206\224\222>]\224,\275\0259\235<\323\337\214\275\003\246\300=\274=\213=\261V\276\275\3403\272\275\203\314p\275\r\'\331<\342/\234\274\320O\205;\274\003=\274Cw\221=\2613\021=i\tZ\275\276Y->\303K`=z5\265=\340\260\314\273>\340\325\275\345\262\215=\212P\014=\3024\270\274\301+\344\274z\213\311\275\3161`=\332\256\025=\225JT<R\207\274\274j\341\005\274\202\264\023\276h\336\216=\362\330a\274\372.,>\344\337\205=Q\257\260\273q]/\275\244\233\273\2737\266\263\275\241\206\217\275\023\332\252<?\324\216=\272\3300\275\372\"E\275\347#\206=w@\257;\360\3144>Fu_\274\027!\215= ~\264=\244\377\240\275A\033\213\275P\321u>\223\361b>\006\017\267<dMB\276\337>\004=\272\035\211=\307S$>P\005!;b\370\257\274\344P\306=\355d(\275\252L\210=z\240\224=(;n=F\363f>W\245\370\275@\340\220>\326\252&=\274\205\335<\034*i\274\214\227\336\275\324\244\354\274\335d^=\356\254\206=\206Xs=\016\241D>\316\323\"\273U\014\023=\213\272\302=>\255\337:\253\204\007=\0359\367\275\177QJ>\227\262\203=\324\351\220\274\202h\211=\362g\312=t\037\253=7>\326\275\236\334\256=v\212\245=%\232\247=\217\324\207\274\3563\177=\355\rF=\377\\\313\275P\202D=hR\377=\303\321v<\351\367\021>s\253\244\274\253\371[\275@o\277=\222\352\270\273\266\"\317=\253\321F\275V\264L\273\343\200\367\274\236\306K<=;\363<\315`\275=U\325\320=:\3501\276\000&\004>T\322\036\276\020\361?=\225\000$\276Vv\017>|6\211\275\006\254P<\020\02509D\300V>\303>\021\276%6\244\274\365E\202=\002A1=\367q|\272\362}W\276f\211V=.s\352\273\203\316\336\275\300\314K\276\000&\237=B\260\260\275\001\363\223<D\274w<\221l\207=\036\3269=^\262\240\275\300\004&=\240\365\300:`6\003\276\3631\303;&\252\271\275\\\254\205\275\005c\310\274\327\276h<\271yT\276@T\215<\222\\\205=\225\212\301<\212r\363\275.\035E=\316\\*\276s\345/=c\2556\275\250\021\222=\362\026\243<\275\027~\275\252]\230\275\021t\016>s\032\237\275\024\253\231\275\213\357 =\274\327+>2\367\000>&\267\250=n\203\360\275\261!\276;=\312\001=\030\243?>O\251|\275\332\370\304\275=\304\226\274\201#\033>6k2\274s8\337\275h\226\t\273Z\003Z<\016\271\000>\023\224\025\276Q\305\223\275K;u\274\363\036!\275\234\313;=\205\216)>\243\327\336<\006\316)\275\342\375\334=\304J\211\275\375P\310\275[d\365\275\233h\232=\005\0016=\007\312+\275\254Rj<(\301\030\276\245\003\006\276\236\210\021>\325\323*=\037\027U>\277\365\315\275R\375\354<\233\224+>\372\346\216\275=n\027\276\014\276\206=7\261\250=?w9\276\022\001`\273)@\210\275\262\260\357=[K\020>\200\305|<>\326A=2\3533\276\036\367\333\275\022&\334\275\353\216\216\275\016\342\343\275]C\037\276Q\257\223\275\256\205\034=\231\2504\2757\225\212=3*\302=\327\0273\276\246-\031\276-Q\314\273p#?=y\234#>[}\224<\326\034K\275\001\252\257\275V|\252;>\312\205\275\270\'\021>\350`(:0\275v\275\351\335\036\274EW4\275T}\023>p\034\244\275gC\330\275\310u<\275\217\237!\276Pg\023\276\3702\010>\025, \276t\021Y\274\202\035\037\2767\020 \276\000\'\207=\313\204\326\275dV\313\275\202\375$\276\225T\201=\312\006\335=\247y\303=A \026\276\277\r\312=\340\256\035\276\217\271G=\203<a\276Y\225\202<\311\2440=\222@\325\275\016\3157\276Z0\317<U\321\307=\216\374\301\275\240\254\202\275\025\227\004\276\347\312\342\274\333w$\276\233\224y\274\274wm\276\340\213\033\276kd\205\273\332}4\276\206\347\202=h\374\212\2755\2061>\343\353\245\276\363\007%>\333\211\010\276\021>\246\275\303;\r\276\243vk\276\250\321;\274\372A\023\276t\301\253\275\302/_\276\271\206\253=\177\237\264\274\252\356\304<\363\376a\276\222\017F\274\356\315\245\275\252\\\036>\245\371\363\274^/\205;\373\227h\275d\321\231\2752\340\252>\344$\255\275\273]\225=\214\335\204\275w=\347\273q\227\216\276pY\262\275\265z\020\275\355\273\361\274.%\001>B\377\353<x\347\t>&\336\376\274\232~I>j-\026<\010/T\275$f`\275;\256%>G\240\210=\245IH\276=\303\266\275*\006\013=\202\003M\275!2\243=\014\035\273<\202\245\376<b\362\324=\360\r\013>\226\270\342\275\036\000\017=\"\232\025\274.\0339>a51\276r\371)\273\355^\327\274`\276\365=u\026@\275\307A\034\276\323\0030>\276\001\241\275\224\216\2769\331G$>\2755\302\275\306\253\245<iG\230<\031\355\365=<\350\256\275\006k\316<\030c\242\275\016V\275\274<s!=%\306\354\275\303v\325\275E\300\001\275J\222\264\274\210>\027\276\330g\265=>m\357=\250n\013\276\304\341\217=E\357f;\270t\221\275\256\326\355<\267\214\024=\325y\307\275\031Y9\275\304\202\017\275x\234\322\2755\2525>\333\024d=&f\316<\004\\\001\275\375\346C\275\334\3472\274`Z\217\274+\321h\2763\260!\275$\027\212\276\234\337]\276\304IB\275\212\363\\\274\331\277\000>\037\257\026\276=9M\276\230t\302<\266\341\005=\353\355\261\275\212B9>\232]\024\276\020\230\276=\277n\005\276\201\341\207\274\325J\010\274\177\243\201\275\313\"\026=F\001\331\274_\300\007\275\337\211\007\275\234\315n\2760\020g\275=\360\260\275\233A\036\276\250\004\312\274w\033\n>\325\021\277<\356k\003\276eL\231=\255#Q\276\224\337\210\273\363\t\t<.A\r\276\273!Y=\261\344Z\276\240\234\227=oq)\276\014\271\001\276\252\225\322\275\203\220\354=w(\354\2752\340V=\3759&\276Y\302\017>`UB\273\356\t\242=\351\362\340\274\255\370\t\275\222V\322\275s\005\333\275\361\200{>\240o\034\275\177C\024=u\030L<\274\343\034=\022\0373>\333\340\007<T]\377=\241~$\2758\202n=\261\255)>\321\335\320=\236\371\356\275\222jX>\253\214\364=Wk\365\271\235v\240\274w\347\220\275>\265Y=\214\371\340\275\217 \223=R\027\037\275L\304\223=\240\250\233\275\305\3160\275\227\211\270\275\207\310\361\274\233>\033\275\017\3152\276\036\231\275\267\346[=\276\204\373k=Kk@=D\314?=\0323\202\272\361\352e\275fk\226=\343\353\257=\310\rG=\n|\236\274\332\001\255=n\342K>\305P\035\275\021\372\014\275\202\004\276<\363\244\337<\376Z)>\025\215\004>\373\3509>I\352\300=<\266O;\310\334\261\275E\2331\275/l\022\274\217d3\276>O\231<\001\034\376=\235o\275\274S]\261\275\226\333u=\034\002#<\203\345\020\276\353\341\366\275\316\337\353<\225z\314\275\327\036P=\003LX\2756\0022\276\366\243N>\273$R\2763\372\017\276\266|[=}\350\031\276\022\345j<\354\206`=ql\326\275EvZ\276\251\342\234=[\327\001=\340\330S<\217\257\214\274\300VM=\021\345\251\274\231$\n=V\317\022>\310@]\275\226\242e\274\005\3329\276\264\335\347\274;}\310\275\'\207\332=#\356\203\276\233C\225\275oG\030\275Q\264\346\275\343\254\016\275\377\270\023\276\236\336\345;H\345\240\275\276\330\200\274u`\014\276\205[]\274.k\213=\000\244\036=5\n\263\275p3\344\275p\215]\274<\215\354=V\007\231\275\025B\016\276\032\365\005\276\313]c\275\275N\017\276\353\255\321\275\324\276\301=i4\225\274\000\257H\276\005\235\232=\254K4\276\275S\257=J_(\276 \320\244=#F\023\276\371Yv\275\261\362\303\275\331\037\020\276@\354\233\275e\207\212\275\250\025\267=\303#\376\274\371u\227=\215\237\211\275\253A\\;\302\2515<\375\300K=WG\344\275\030\301n<Y\'&8\214\254\352=~\034\213\275\340\216\246\273g\335\216\275\325\263\321=/B3>\220\245==\356Ff=\240z\234<Q\316\223\275\337Q\020>.8\177\275\347\350\321=>h\243=\372\014\326\275n\375\257<\300\340W\274\246\370\242<\374k\001\276\236\246\t>\001:\344<\336\257\341\274R6\275;\311@k\275J[\302=\257\2066=\343z\202<\'\232\007\276\353\003/>\276\367a\275l\3305>k\372\376;\214\330L:P\346\215=_T\350\275\014\231\006\274\022\007\r\276\357r\215=L\347\310\274K\020\013=\362o\256\275\345\270\217=M\365\377=\321\206\034=\362\224\001=\'\211\324=\323F]\275\237\301\252\275\204\350\225\274\315<\361\274\314\324:>\312y\367\275?\353\260\275\305.\315\274\320\r\n>^\2563\274\355\0109=NkP\274<}(\273\376\033\003<\250(\016>\302\253\031\276\223\350\213<\373!\373<A\031\232<Wg\376\273\376^\263<\206\001\267<\022\332\357=\355\205\361\275\237\331\336\275J~\214=\3107\234<\221\025\t\276\210\030\265=\234\307\323\275\273\304\270\275\200P\226<\3577\271=TD\027\276;\377\205;\204\320\023\276f\344\017=W\361\333<\355~\016=\2213\016>\324}\211=\333\355\037\276$\352\220<YC\376=\346N\236=\213z\203=onr\275\247[@<\371[\251\273F\337.=\366z\322\275\006\222\007>[\272\222\275\243\312\262\275\237A\271\273\026\312\310\275{3\242\275\366%-=g\215\351\274\337\340\335\274E\201\354\275u\227\014=\334\032\034=\007K\371\275D\232\362=e\334\315=\016Y4\275\222\276\257<T\035\014\276W\224|<\373\240\275<\220\370p>\226\020,>m\242\327=\322\350\221\274\035\001\256\2728q\037\2747!\014>\325\331?\275W\253\244=%\177\376\275\003\246\243\274\346\264\035>\305;<<^\351\346=\243\205P>m\240\234\274\347\302\024\275\311I\211=\213\362\316\274\234\n-9\370\233+>\350u\266<k\335\321=\004y9\276\304Z\355\274\273\\J=\334=\357\275\352\256\231=\222\330\366=\204\234\272=\377Z\\>}f\360\275\326\354\246=\230\311\324\272\323\2040=\213\323\272=I(\335=\271L{\276\254p?=\016\354\355\275\350c\202<So\032\275\316\232\325=_\262\216=5)\036;K\005\252\275\254k\342\275]\2639=\210\177\002>\276\205\346=#d\204=\346\003\372=\317\214\232=\265\205\006>\230b?\275&CE\275\302\034e=n\313\035=u\'1\276\320\335\322\275\263\037\322\275u\004\265\274\272\353y\275j\032\014=b\"e>\244\3423\276\312d$\274#x \276F`\246\275\334(m<Xw\344=\333W\320<`\021\3559\036)\016\275\262\372\352<\277\005\002\276\225\r+=\302\n\200\275~&\301\274FcO\276\0371\217=\360\307\333\275\030\265(\275o\3760\275\325\3611=&v\031\275\233\240W=\363G\245\275\326\357%=\3553\014\273I\033->\t\3570\276\r\234\215\274h\016\247=b\262\230\275g\264\031\274\345\265\250:4\364\035=\237\350\265\275u\356g\275=\tN=\361T\201\275DC5\273\341\337L\275\315\367\361=\241\252\"\276\033\300j\276\302\343\316\275cy\t=\324e9<\260\222\205<\230\242\006=c.r\275\374\203`\275\364/\232<\t\347G=\251\3119\276\277\231\264;<yT\274q\247%>\027\025\317\275\351\007\302\274\265\0160=\020\342\247\275\233\300\031=1\306\365\274\n\215a\274\021\302\342\275n$\006<\330\341;\275\254\307\000=2ur<d\007\322=\002(\201\275$\206a<\323\003\244\275q\243\230=\226\362(\27651\253\275\'\335\027>E\277\032\275me?>%\013\013=\253\346\273\274\222$\236=YUB>\343\361&\274[\252\263=f\010Z\275A\203\023\275\235\337\270\275\230\251\203\274\320\247\370\275\265f,>\200>s\275:\255\324=E\216\013=\225J\372\273Fq\n\275\215P\275<\2214\264=\027\2571>\262\253F\275\007\037\346=\275\347Q>$\317\200\274\205\031Z\275\262\202i=\224Wg=\361]C=\266\312\240=&FC=\305\356\340=1\210l\276Z\265\371\274\307\361\262=\024\300\024>S}\220\275K\235\366\275x!\364\275\301v\204=#\336\001\2751\322\030=I\366\350\274Z{\025\276\317\251\020>b\257}\275&\004\276\275\312\335g\275\355\321\205<\247\342\316\275G\003\013>\310\235\316<\357;+\276\233\212\324=T\025\322\273\2534\020\275~\014\034>\373\357\305\272\300\304\n>r\001]>\241\023\002>\366\205b=\221\243\201<\245\222(>\337\234\266=\370rR>\367\333\371;\222\257q=\360\361^\274\002y\027>\220\217`\275M\261\254;\233\260\367\275\020\",<\327DE\275\352\377^=\252\246\332=\262\2739=P\215\303=\340W\344=\370\310\277=\334\027U>\005\370\373\272\370\344\337;O\310i\273\321\230\317\275qSH=\240\035&=\rD\330=^}\256=\325n\310=\301p\350\275k]\237\274En\214\275~\225\025>\312rC=\367:\002>\374r\366\272\326\305\210=d>)\275*\311e>\371I\310=\036\007\'>\362;\216\275B\302\233=\'\344\272\275\037\343\302=\230\000\020\273\362\277\005=\220\313_\274EQ\325\2754i\313=\372D\336=\t\020\226=\252\373\273\2754\315\332=\203\216E\276\317B\353=\005\326\327=;\247B\276bl\271<\020T\365\275u\306\301\274C=\003=92\221=\023q\265\274\301\360\346\275u\350\007>\211\340\026>\031\037\221>\255\371\323\273\366\345B\275\002\235\332\275P\204\273\273\334\002\020\276\351\314\203=\323\326\237\274\240}\032\275\004\025\206=-L\023\276\255\243\260=\271\013\305<\340,\200=\340\235\007\273D\014\275=\373t\r\276\030\264s=\201E\007\276O`\224<\214\253B=\241\334|<\337\354\203\275\366\336\330=\365\315\257<\377\366\230<?[\200=\316\021\214\273nN\227:D\222\303\273\254\262\250=\305KX\275j>!>y\263\324=\310\246\206\275\007PZ\275\022\266c\275\241\211j>\"\376\341\275u\370\257<d\037>\275\340\010[>ES\373;\272Cf\275\344\0170>K\276\352=\n\273\205=\205M1\275Z\245p\276\002\232\214\275H\234==\323x\023\276\337\254\235\275\326,\n\276\374`\364\275\257\337R\275;f\005\275\277\227\322\275$I\366\274I\232\001\2761/(\276\330i\031\275\310k\242\275\350\302\304\27582D\276 \3200=7yy\275\347\362\\=b\266*=\271\302\277<t\233y=\205\376\355=-@\226\274\331c\361\273\256\'\025\274>\"d\274\272C\317<\234\316\313=\340\213\227\275\352{I=\244\342\322\274\033L^\275B\342\236\2756\001\353\274l\335\010\275S\361W\275>\376\210\275g:\355=\236\320\315\275*-\234\275\375\004F\275\220\260F;o99\276\303\355\350\275\013W$>\360\235\003>k\n\211<~VC\276\342y\240\2732\345\261\275\345\317X\275\204\025&\2753\301\215\275\004\213E\276\232Y7\275\340\233I\275\0132\004=$\232<\276\202`\307=\276\225\352\275\240\246\316\273\276\227\006\275\021U\027\275\314\230\344=\203Y\"\275_\nj=s\014\372\273f\302\242=\261\031\342\275\360\373\023\275\007*\332\2746n\216\275}u\035>I\236\253<\244\200\237=\274\334c\275@\177%\276Q\206,\275Y(\307\274\352\236\300\273\200S\351\275\331RL>\266=\200=\231[\375\275\264\300\203\275\342\225G\275\003\345\326\275-o\264=\222\302v\275\210\241\273\274\322\337\262\273\033\021\"\276\343M\257=\354*Q\275Q\004\344\275\340\324\217\274x\251\216\275\261\355A\274jlz=\356o==V\313T\275I\272*\275\nYx\276\013\367\300<!\005\233\275c1\204\275\246\214)\276\301\n\022\276Y\244[\276\333N\010\275\267\247\217\273\230eX\276\275\352A\275\271~S=\312\263\177\274cA\251\275\354B\262\275s\356z<\205\215O\275\245\251\201\275\252e\322=\306\236\203\276\366o\221\275%\265`\275\2724 >\021x\256\275B\333\351\275\345\016%\276\203\371\024\276\263+\003<\0268$\276W\362\014>\310U\261=\\\371\311<]\274H>\340\371\346;\310\344\272\275wbp\275\276;I\275\375\202\270={M\">\321\247\001>\340\305F<|*\316=\261=\361< 7\323\274Q\021\004>mn&>kZ1\275\254\306.\276\352,Q=G\275\005\276\034s\376=\342\363\001>Ru\352=P\037\\;\373\225B>$?9=\037\267\204\274\037\346>\276\252f\2209u \370=\324\366\362\274\010h[=\'\237D\2749X\036\276qw+\276.S\243=I \202\275\262\260\267\275\212\366\257\275x\235x\275x!\274=\236\366\231;\223Z\213=\271\\\377\274\"\2369\2754B%\276\264\351\360\2742W\006\276]\353\266<\005\351X=\206\021\017\276\007\230\232=\271\202Y=\375:\002\275G8\013<a\242\265=\t\250\004\276\250L\305\275}\361\033\276_\220\365\2755\227$\274$O)=i\240\220<47\207< r*=\233\377\341;\202\341\204\272\n;\257\275\322\267\360\273\201\223\032>\231\363\335\275\207\226:\276\211\303\014=tdN=U-\346\274\027\362H\2767\220\221\275\315%?>\306w\335=|\240\212\275LTu\276Z7\014=\333\333\020\276<\313{=\207\242\021\276P\305\321\2740F:\275\330\252\265=\240}\225\275\372,\017\276CY\337=\270\370\004\276\030\376m\275\362\352\014\275\320\200+<\023\370\317;\023\260B=\377J\274=\351\314\034\275\r\007\354\275\260<\342=\034\374\343\275?}H\276w\324\212\2749\230h\275.\222T=\343\376t\276\206\240\321\273I\353\365\275\0223R\276\312\360\320\2740e\223=\305c\264\275\337\351\027>\244\275i=\016\021\203\275=L\256\274\225\344\027\276\370Q\222=\276\230\217:&\337Z>\220\302\023\275\024\324\r\276T#\221\275=\215h\275\207\256\241=f\250Q\276\355<P=,vi=\004\311\371\275;\2671\276`\335\221=\r)\250\275\n\177\333;)l\241\272\242\241\033\276\377\250!<.\013\240=\340u\313\274VZ\026=\2212\357=\024\306?>k#>\276A\270V>\374\245F=\262\237\027>\254\217\021\274\260\324\005\276%\216\200=\315\305\357=\2637g<\246\364D<\2743\353=$\n4\276\323\230q\274\2330#\276\t\323(>\241\214\355\272$f9<\353/\274<\013u\334\275rUf==O\'\276\233\210(\275j\t\002>\341Vq=\312\032\003\276\265\n\314\273!\324\202=\351&\330\275E[4>`\267\217=NM\026\276W\r{>S\031\260=E\254\033>\367T\236\275\006ns\275\256k\244\275Hc\272=\362\326\014<\277\0370\275\n!\236\275>\230[=\236\024\374\275\210x\177>\343\342\257=\002\013(=\321.R>\325\300\010\276n \364\275\335\315\360;\325\265\021\276\367\257\033>XK\315\276\222\244.\275\344\336\364=\177\220T\275\332\225\221\2742\202~=\235nk;\245c\004=\223\013\325=Ym\262<{\2175>Q\312\036\274&@\366\275\236\255\263\275<\367;\275\326\327\252=\274\326T=\204\023\005<\224\240\361\275\037\373\221\275\337v\356<~\315m>\374\357!>\343\301\332\275u\037\225=\263D5\275\304\016o=\364\320\347=\"\307\230;\t\337b=\000\374\275<\264\341\322\274\n\032\230<.\031\017\275\345\231A>/\033\010\276\214J\023\276\006\232\300\275\360\211h=[\017\017>\232X\000>\212\\\000\274\274HH=\307cn\274\270 \202=v\302\013>\267\362\025\276\370\305\213=\262\030K<\355\002~\275\'\235x=/\340\277\274/*\022\276N\\\267=\262\352\272\275d\000[\275%\\B;6\302T<\352\330\257=\220g5=\376\216(=\330\273i<N^\322\275?\247\335\275\277\000\377\275]\376\214=IE\224;4w}=\372\032*\2763\246\254<\236b\177\275}k\226\275?\346\250\274\234\265\020>\220L\324=\310\227M=\2102v\274\302yq\274\022\002\345=\377Z\"\276\203{\013>\272\201\265\275P&\216<\315\205\220=\323\226\315</\024[>\335\242\342\275DY\223=\333\237$>5$\036=\277\210M\275\037\006\203\2750~W=\217z\251=\t\333\254<\230\213;>\301Ev\275\333l\023=3\213\267=\334\026\027>\250j\026\2740g\001\276y\rY\275\260%\350\275z\361T\275L?\207=wO.=\257B3<\023\227\032>\367\302!>Y}\023\276\222E\375\275\024\357.\276 s\017>\026DV\276\236\'\311\2753\\\357;Z\262%>\220\334>=\247\335\004>\250O\"\276\351 \214=p\261\251=S\017\213=\262UB=1\271\262=\335ke\275\305s\243\274\215\301\005\276@Fg\275\265\353\346\275\311#\365\274 l\245\275(_)>d\"$>^\010\000=\304c\010\276\203\036\265=\230\355\024>\315\272\360<\305w\237\275\202\344\250\275\350\366\272=s\360D=\205xM<\021\252n=\315\317\203=\307\272\325=\323]\315\275\225z\334=\267f\274\275\305\312\037=\263\315\313=?J\017\275\267#\316\275\343\177?>\001\321\343\275<\357&>`R\341=1Uo=\344\001\027\275\375\020%\275I\205\312=z\024>\275M\223\207\275\033\203\026<%v\357<I\231\037\276Q=\315\275\3756\206<\n\2461\275Xq\255\274\325\316\'\276sb\267\274\362\037\351\275L\014$>!Z\021\276\213\254\007>\306t\201\274\351F\t\275\225[\314=d\030\002\275\307\277\036\276\353\353\323=\326\205\230<I\3145>]\321\014\274\255\014\001=\262zZ=u9=<\333V\235=C\330E<\371I\215\276qh\t=\340\330\t=\003C\314\275\r\217\271=>\231\005>A\314\242=9\274\020\273u\336\351\275t\377\031>\261dc\275\023\262\014=\226\307\001>`\342\372\275\316\002\334=\347+g\275h\023\244\275d\021\001\275\274\241\344<5]8\275Y\333\004\275\301&\331=\317\200\303=\034\365\374\273\323B\366\275\343\223\236\275O<`=\274\232\306=\022h\003<<w\272\275b\330\304=\003\310E=\252K\"\276],\302;\013b\244=\267!1;\033\022[\275\037i\226\275\225\237\271<\302\034\234=\270\333\237=d\013x=?\004q\273\272&\213\274k\244\361\275\230\r\304<V\032\007>\223`\005>\364r\">\nA)\2766\227\352;\366+z=\nq\014>\376\303\031\274cH\361=\322\024\021>3\351\357=\352\212\201\275\245K\001>J\307w\275M\237\320\275\037\231\211\2755:\n\275\322\226]\275\376MK=\007\006\210<\001{\353=\363JZ>\215k\237=W\332\023\276U>\310\275!z\233\275\216\210\233=0w\362\275\037\262\026\276\0214\234\275\313Gc\275\361\331\013\276\275F\240\274>\270/>\344\241\246=\204a\000<\332:\222=\305\013\307\275\241\312\021\276\030k\341\274.\313\021\276Z\207@>\000\3569\275\224\253\026\276\203\177\235\274\322.\023\275Y_\240\273\345j\311\275[\027A<\314\303\304\275\226\316\262\274\212V}\271\314\273\237\275\302$\306\274b\017\341\274;I\221\2756m\317\275\367\001\265\275(\314\336\275\273\001\203\274:\343\235\275-YL<\223IM<\222\252\255\274W=\263\275K^\256=]\035\363\275\0169\025\274\3577t\275\351\361\'\276\210\033\030\276\372\016\035>TE@>\034\035\220\275r\247\330\274\n\037z<m&\030=\351\037\002>c\'#\274\273\256a\276Q\363\212\275-D\250\274\372\273\344\275\342\333\010\276_;\275=\027(\262=s\207\024\276\351H\254<\262\272\033\275\013\220]\276\005\267\357\275T|\344=\374\341\025\276\335\275s;\270\353\212<\211\315\215=\265s\243\275\252q!\276\324\207\346\273;\300I>c\213\010\2759\006\370;\\E\337\275\234\310,\276\3277*>\274y1=\314,8=4\007\233\272k\346\327=\207\300\266\2753\"\361=~?E\276U\202\255\274\007\243\032>\n\350\272;v2\033=\r.\217\272\227\235\361\275\024/\210\275\230\\\261=\322\202\225:q\021\035\275\002\356\025\274\345\351\226\275\n\227|\275v\271h\275=\313Y\274\177/p\275\002\245V\276Utg\276)\222\r\276\335\027\230\274\306z;\276@qe<|\312\262\275\010\014\212;O\303::\252**\275\232<\'=V\230\000>\261./\276\361\345\327=\303\225\326\275\326\231\255\275\304\365\263\274\310\316.=\010\316\272\275W\333*<f.n=Gg\322\273\031\013\210<\206)\305\275>\026%\276\363G\322<\314f\234=\2068\347=\367\356m\275t0]>>\242$\275^\315@\276\324.\313\275\033\\\350=\014pB=;\245\341:^\355\346\274A\350\356=\023)\006\275\331;\001\275\002!!<\241\'\346=\204\025\277=\021\003\006>\275\027\344;Z0\216\275-\366\203=Jw\265<bQ\n>@u\226\275\346\241*<\254B\215=\320Z\001\276hJ!\274!\204\256\275@\031\\\271\207\246\016>c\276E\276\014W\035=\227\306\371\275hF\274=\032\262\r\275\352\237\267<@j\256=u\'\345<@oU=$\267\361\275@#@>\032  \275U\000\232\274A@Z<\207E=\276pm\316=E\3751>\322\333\000\274\004,C>HD6\274\031\350\004>f\225\330=*\310\036\275\225\337\223\273z-\224\274\333O\306=\340\224\020\275a\302\313\274\363\354\251\275!\210\"\275\221Kz\274\263\002=\275\210\252\231\273r\2009>[&\356<\266r\033=\321\203\252=\023\357\270=\2175\201\275\344>\334<Lc\227<D\014\230\273\330\2337=%\240T\2759\2445\275\336\363D=\016\361\215=;\'1\275\300\370<\275\367;\246=\367\220\246\275\337B\250:\230.\003\275;.\271=\262\341\304\275\253UK\275\365\014F\275Ij\004\276\t\312\234\275h=R\275\256B3\276\336b(>\274\025Q=\262\325\324\275\326\360(\276\314:)<8\357\003\274\235\036\275=\216\244W=\272\3329\273\037\204\027=]k\003>;w\316;\347\013\275=\237\220i=@,\013>\213\214\017<#\254\262=k\326V\275\300\214;\273c#\352\275u\362\306\273\347p\330<\312$1=>\240\305\271\035\345\330\275{\006\233;\312G\311\275\330\307\373\275\010\204\000\276\001i\242\274oxA\272\277\024\233\275a\243\310=D9+\276\273\325\231<E\362J<\373\243\213<E$\025\274y?%>f\226\246=\033\240\334<u\205\022=d\351\024=\326\211\035\276\301\002\036;\373^\271:Xbt\273\303\025\305=\323\262c=pu\344\273\335\231\367=\365\317\262<\267v\245:\274D):K\003\305<O\004\027=l\361X\275Vv@\276|\324w\275\003\270\202\275T\247\354<H\240\260=\027\365\342:C\n\261\275S/=\276\324k\241=\022x~=\262\024k\275\013\323\370=\370j~\273Ao?>\255&\033\275\234\025\330\273j\"*\276I\021\256<\327\020s=x\357\357\275-.\225=5\266\246<Z\036\214=V8\274\275\204\203\023<\374}\345\275\313\224\231=\304\243\\>bC\351\274;\233\345=,\265\336<\375vf=\322\373\323=\244\230R\275\222\276\006\276J*\235\275\003=\336<c\346\234\275\307\271\354\275\264\005:\276\032.\223=\307\242%=\325@,\274CZ?\276\014s->\326K\205=\327\016a>!kB\273\033\t\311<\247W\001\272\026\030\010\276\035\223\200:>j%=\3761\260:\333\316+=n\2678=\r\256\315\275\207pU\275\245\203\037\276\200\345\202\274\336\327 >\250\217\300\274\325:\336<Z\371\022>k\321\256<\221\370\220=\0141\256\275/\264\031\275\272\005\335<\317\342\320\275t\034\266\274qD0\276\363{^\275@\220d=Dh\202=\024\362\264=\341\217\241;\006B\311\275\207y\243\2749O\333\272u\351\366=&\316\017\275<r\322\274\372A\231<\234\002\366\275\371r\022>-r\270=\017L\"\275$\274\032\274\263/\207<P\255\300\274\n8\346\275\177\2755\275\201\247l\274\016\362\300=\264\212O\273Xs*=\331\245\001\276Y\r\351\275\223\0267\276c\301\206:\277\214W>\022J\201=\227H\302\275YM\035=\321\274\033\275\365\2631\276\266\2352>\007\r\274=\033r\000>H\345l>\330w\030\276^\222\234\275\373V\337\275+\313\256\274d\035\177;\252\010\257\275\213\350\347\274\\\017\"=s\353\013\274\234<\223=\n~\303=\344\374\316\275os)=\215\366\020\276\304&\271\275\225$\000\275`\211z\275\312V\366:\321\315\211\274\0041[=\314\375\000>B\2471=D\273\335=\316\353+\275&\251\020\276\020\263\031>*\'\250=P\'\017>\016\321\227\275\357}0<(\0302\276>i\337\275\277\017\271<h?R=GC\021\276-6\271\274|\360\205=\365\244\245=\037\343\037\276g!\371<\310\336\213;\201\356S>G\3512<\346\313o\275)x:\276\3425\334=)\257\226=OM\324\275>\007c\274\232(6\276\315k3\276\310e3=\351\006!\274\370\247R\275|\347\205<F\tP\275\275\251\307\274\260\\\246\275L\304.<\0302$>\255\247K>\334S2\275V\340\355<o}\t=\275md\276\225\355#\276a\234u\275\255\030\220\275\250zG=#\211\023=\010Z\031>\260r\323=\005O\250\275\202\026\221\275`+\256\275L\322\313<\211\242\327\275-\007%\27656L>\32236=6\251\010>\"\304\371:\0264\230\273F\346\020=\312\246\343\274Qq\260\275\326X\274:\270\255\357\271f\204\021>/?\031<\332?\207\275\355l0\276+\214\301=\335D%\276m\006\224=\225\260Q=`)8\275#y\352\275\220k(\276\332\362y<\317\2662>Yi5>^\213y=s\207&\276/\310\302\274\375\347\016=\002 \006\274l$6\276\362e\256\275\220\014\374\275\\\340e;\036\257E\275\014 8=W+\226\275u\215}=Y\222G\276n\'*\276\257)\343={:f=+C\206\275\343\004\350\275(\331\256=7Y\217=\371\314\237<\270r6\276q\344}\275P\016\257<{\0344>@\303\324\275R\277\306<\376\032\"=\\&\347\274\331\017\371=ULM\275\247\027p\275\310_[\274\252\227\215=\227\223N\274\215\321\021>\005\r_=\2128\272<bm\021>\017\227T>x>*\275\004+0\275\2265\254\273\220S3>0\372\223>\357\032->\273\376x>w\367L>i>9<\021\024\340<\252\024\364=a\246\267\274\352\201\221<\343Z\227<;{X\275\331\330\301<\n:!>\301G\277=\356\016d\275\327\224S\275\276\327\234<\2612\314=\262\377\321=\277\237V=m\363\207\275\261+4=\374\272\362=2:\264\274\003A&=\376c\336\2747\365\230=\340\036\310=Fl\224\275\301V\336\275\304\344\r=.:\200\276\341C\371\275\346;G\275b\326\213\274\346\2123>\212\226\006>+\325\216\275\270\004\237\274\203\035R\273\366m\340\275\340\372\354;\013\2243\273F\031\215;\243;s=\242\277Z>\353\020\320<\370Z\037=\300S\315\275\177\223\323\275-\372\354<w\262\371=\272\300\234\275\021\346*\276\367\261\034\274\213\'\021\276\267\330-=t\177\240\274<b\273\274\244g\205\275.\362\310\275\201=6>3\331\300=\204\004\251\273*\340\304<\221M\003>I\022<<%\237$\276}\203\205\274\216\247\003\275\210B\026<2\264\230=\375\216\220=VS/\276\335\205\311<\030\323>\275\356\222\322<\022\246\364=+\306\343\274e\272\003\276sr\312\275\'\374v<I,a\275\357i/=\273`\021\276\221\326\322\275p\223!\276\217F\312=\306@\350\271\321\262\321\275^\225\023>\236q\214\273F\267\023=\263?\303\2746\272\274\275\363\202)=\350\264\355\273[t\213\276\245c\222\275m<\271\275\032\346\270=qar<\311Y\337=\351\356\000>`s\210=\3730E=\023k\201=\024\361\330=\373{M>\306U\024=V\017\303=a-\370=\002\377\326\275\364\t\333\275\275\260\205<\370\355:\275\372]\233\275\016\332\221\274\235\222\337=\350\356\022=\353S\266=dW+\275F\313\031;\270\307M\276\260\324\n>8w\250\275)\301;\276\365\245\373\275\351\233l\275\277a\364=4\321V=\3579\341=\002\242%=\177\016\205\276\320(\325=#X\345\2756)\317\275\016\377B=\266J\010>a\251\211<\234\361\233\274\310\033\224\275\324:\333\275\372Wt\276#^r\275\264\347\353=\233Q=>e\330a\274\234\267\025\275\256%N\276\036L\214\275!\243k\275\306K\214\274[\216\256=\004\273X\276\354\250,\276\266\204\355=\203\234\221=\220\377\022<\256\341\202\274|\320\020\275>Sr=\rU5\276\206G\r\275\204\344P\275\221\240\225\275\217\2556\275w\262\\\274\264\tJ=\252E\251\274~\331\234\275-\rD\273\206\035\013>q\213\"\275q\357v;\252Sp=\177\251[\275;\365\177\274\245\322\235<\252\314\342\274\3034\257=\225\303\222=md\213\275d\0014=\001\nw=s\320\212=4\025F\276\310P\337\275\2329\251<\340d\221=\327|h<Gj|\273\332\013\370\275\357\240\324={\0201\275,\310\261\275\340V\322\273\310W/\276\356\361\374\272\336z\006>^f,\276fG\016\276>\361^\275\t\213,\274-\372\213\275(\337\260=\253\206\364\275\264\370t=\206\213b\273\224\252\230=\223\335\206=}\013S=<\3562\275ko\375\275\257\214N\275\331R\203<\370=\207\275\3710/\276K\333\220\273\364\031\266\275\265\2649>R\310\037\275\317\342U\275R\225\230=\216~\">\337W\347\275\277\222\001>\004V\302\273|]v\275Yu7\276\260;\026=\271J$=\000c\343\275\342\221,>\237gG;1tI=\326\006\333\272\253)\214=\214\231\364=^\322\036\276\311\3440>h\277\305=7\3159>\003P\303\274\363m\200=\331\016\337=\306N\023\275\013?\240=\356ql\275\025\310\002\273H5\031=\365\326K\276\262\274E<&@\232\275\315\372\320\274\3123@\275{e\004=\314\347H\275z\253B\276\207\344\345=\337P\250\2735P\247\276\327O\213\275\370\243m\276B\203\205\275\306yM\275\324\260\001<\223\250\226\275+\305\036=\257YY=\350Y\235=b\232\324\275\334\302\007\276\324\342\364\275\024H\323<\261\226\244\275\033\310\216\273\252o\243\275|\313I<\272\2428=\004\037i\274(5\000<T\357\023\275\031\217\"; F\026=\264\316\275\275k\036\366\275]\034\325<\277\274\334=\340d\021=`%\007=T\312?\275\"x\022>\206\205\345<\330\315\\=\342VO\275\302\301\r\276C\322C\275z\316\033\276\330\215\030\276\n\021\332=\020\306+>\212\322\224\274\320\017\235<\261\266\356\275L\233\330\275Y\233\230=8A\316\274:\233\021\275\210*m\2746\330\375=\3731i\274g\235\306=\223\356\264=}\354\213=\'K\254\275\376\357\263;\276\010\324=\316\236\375=\375B\315\275]\236D=\225\303W=]\254\010\276\231\226\315=\370c\003\275F)\367\274\021\333\001>z\311\370\275\336\314\320\275\362o\211<\026\220\354=\001\3732\276\352p\014\276\016\222\351\274\340U\001\275\006&\000\275\035\013\214<4\251\316=\006b\217\275\230\211\222\274)>j\276\201\352\003\275\233O\261=2\3732>\037\245*\275\346-\242\274\013f\004\275O\\\264=4\001\221>\336\204\254\275\340\333y>\001B<\276\276P\323\274\177m\221>\357\365\255=\220@Q\275\362t\213\276\232]\316\275l\202\027>E\2413=\016\247\030\275\266\002\245=\370@\036\274\255A\005\274\324\300\216=\n\250p\275\242\232\035>\336\264\216=\341 \200\275H\017D<H\321\207\272\020jf\275\256K\005\275\\\230u\275B\\\205=3\202\253=\301\032\243\275\262\217\357=V\243s=\277\342\'>\324\270G\275_W\027=Z\017\025\275\206\221\022\274\327s\277\272\271\010\001>+1\310\275\202e\037=\020>\325\275\nx\342=-79\276\345\005\214=\376\016\316\274\272m\037=\316\030\206>\270\374\002<kaZ=\373\325b\275\270\r\212\276\203,\330=>/\300=r7k=\215i\260=\267\231\262=\267\265\225\275\004\250\304=_\327A\275\304e\221=\342\330\002\276e\245\375<\210\237\013>b\352\022>\256\016\312\274>\352\253\275y\021\304<\225\311p\275\020\2570\275|\301\264\275\360\315.<\314\376\376=\n\342\t\276\256m\217\274rIx\275\205\0101\275\331\260\277\274\327\333b<SZ\225\274\0312\022\276@\315\r\276\267\2730=\200\225#\2750J(\276\0036|\272)\313$\275J\351\007\276`\355 \276\361\244\001\276F\255z\274r\222\241\275dnZ\274\313:\242\275\300\217>\275\261\335\177=A\017\022\276\252}\005<\214n\356=\267\tB\276\023\200E=\375\310\264\275+\034\372\275*\036!\276\300\342\247\275\306m\360\274?@\013;\365C\035>%dI\276\033\253\023\276\336d\330\275v\r\\<RQ\017=\200\240\013\275\214\3070\275@\216\320=\n\037\377\273\316i\305\274\201\345\005>\031A\257\275\334\234D\275\234\254\260\275D}\020\276|_\230\275[\317\220\274\320N\000>\206/K\276E\351\236\274\3003\373<A\324@>\003\264\330=\033J\3439\200\273\"\275\227\022H\2743=+>C\271<=\007\234\277\275\326\025\022\275`\200z\275OB\341<\331q\230\275\222]\216\275\3167\274\274\357X\200\275\263F\305\275\237!\350\273\034j\004>n\210\342<^\000\362\275w\374\230=\3624\002=\354\302\243=\201\201\204\275tT\005\276=f}\27592\366<%C\362=\211\346j\275b2\003>j\024\340\275\357\323\207\274\245\"I\271\204\341\'>Q\346A\275n\241\255=\212\035\332=\253\235\262\275\340\324s\275\257k\251<\337\263^=\375X6\275\322\276\005\276x\357O\275\032\366\232=\200\350\374=\332\254\206;\0170\347=c\207E=\366\231\337\273\2105\374\275$O\304\275\271M\325=\353\270?>\260\3464\276s+|\274q\204.\273\"\031@\275\201\222\206=\004\257\372\275\035^\2409d\222,\276\260H\205\274.\244[<\204\nY>\\\241\205\275\364\"-=\331\263\005>\371\036\027\275^\204\030>\362\356\005\275\241\257X\276\373\322\216\274\010\223\313\275].\227<\352<\353\273c\345>=\271\333\245\275\177\035\222=\302\206\200\275|\226\323=\336\373\271=J\300\256=t\004q\275\261\316#\276\356\203\357\275\300\343F=q5j=\223\352\311\275\244]\256=\371L\300\274\303\321\224=\343o\361<\025\325\367=T\026]\275\241k\212\274!\323\242\275;G\330=\2027\036\275\3559C\273\331\033\363\273\351\332-\276EZ\244=\275\234C>v\202\277=<\325\026>ho\300\275U\366\010\276\314\017\340=\035\366\002\276\327\372\347=v!\344=\323\007\346;-\001%\276y\255\036\276cG\017\276\266\257\344<\034\305\200=\224\262\346=I\240\224\275\263\274\007>\231T\237=\312\330\201\274O\211\\<\315x\215=\346\346\302\275\273/(\276u\240@=\300)O=*\253\270<\030\205R>d\357Z=\007\207H=hb\372\274\275\221\307\275\255\256(<\\u\001\276\315\334\201\274.G\203<\350\301\355=\341\200\322=\t/(>\t:\224\275\275#\001>\247\345\206\274\006\372,=\203/k=\320\364\246\275-c\275\275d?\255\275\321\007R=\366\310p\273U\275\376=\022\315\221\2758|\245=|\304\006>q\243 \276\246\343l>K\267\026\2762\334\333=P\253n>H|\t\276\363\370\377\275\234k\001\275\004w\345\275\201\235-\275\021:\000=5D\323=\315z\344\273\r\304\t=\321]<\275/s\231\275@\200\264=\307\223\035>\361\302q>g~\'>^\254\274=\037\007F;-j\032>A\261\234\275\210]#>\213\312\362\275\0357\027>S\010\'>\341\005\342\275=\251\231\274\361X\r>\3359\010\274;\206\230=}\314\336=\357\2474<Ti\023=\346\221\226\276\310\362\316=\034\223~=\n\025\275\275r\365\302\275\203Qs=\037\0269=\246\302\360\275_\224\032>]B~\275\266K\303\274\001\010<\276\302\341\375;\2536\223\275\177#=\276\020\234\360=\250\026\352=\313\304\327\275Hm\243=\252p\365=\273\3732=S\274P>\320\273\\>y\\L\276\232X\204<\016\266\231=\261)\"\274\223\221\241\275\007\331\244=\333\270\340\275\256\244=\274Z\017p\275\354x\204\274F\307\003=\3754\377:\251\213\377\275$\300\223=ne8=\244(z=\272\201\276=p\272\200\274=\241|\276\201\366 =T&\301\275\227>\344=\363b\303\275\0217\241=\300\2531=5B;=G\005\225=\241C\346\274U/\323\270i\2458\275\270\037\233\274\226\221C=S\242.;\002\267T\276>C\350\275\217\232\033\275\265\204\345=G>\215=\247\227\357\275\005i5\276>\221\201\275\034\336\013>\326)X\274\207ji=\017\026_\275;\216\247\275F86>\202\r\353<\207\215>\275\220e\026\275\327}\366\275\231&\200=\010H\202=\366\341\273=\241\356P>\272\366\036=c\360d>\226\275l=Zv}\276\r\226\360\275=\233\037\274Q\376\r\275\360$\255=\324\220c=a\343\224=\227\305\355=\272=\371<)\352\'>(\341\305:\302&\302\275\256\373\352<P\331^\275\211\010\003>vm\357<*J\023\276D\345\376\275\026T\330<\256d\332\275\023\201\255\275\236\226\341=np%>I\232\254\274i\005\">\272\340J=\301F\'<\002\3020\276/\243\262\275\0334\232=\372e\005>\020;\250=<\336-\275.DC>\353h\306\274Wl\221=\311by\273G;\313\273\251\373 =\342\214\000=k\300\000\275&\257\256\273\241\305\030\276\025\250#=m\316\006>r\nT>\303;?\275\355\'B\276A\240\224\275\020[\263=\246q\207\275\004\267\013>:\214\253\275W\363\343\275G\236\200<^t\251=\220\375$\276\023G+\275\217\304\330=\354\244\357;\270\r\033=\361\272\215\275\226\340<>\337\314\033\275\211\257/\275\n\207\027=Hg\017\276cT\">r1\'\275\354\232\013>K!N=[\375$>3\264\004>R\2257=r\3256>\302\237n\275\337fU\275\331\263\307=\006\305\345<\267j>>\350\236\177\273\362,\307=\224\364\340=-\032Q>\200T\336=\227W\246=\337\001\014=\373\036\200=\220\356A\276\263^\321=\306\316B\276\367\177J=z\312\206>\200;\370=`\267\003=\'\213\202\275\254Kn=\333\204\017>)\373v\274\002\306\023\275\337\265\034=O\300(;\031&\237=\232\302\266<\274b8\276\000\021\021>\374\202\273\275R{\221;S\333\231\275\251\231\240=\354\241\211<\t\202\231\274\351\343\270=\352\220\311;\317\204\204\274\342\364\232<\0251\224\275|{%=\376\227\t=\332$/\276\362X\233\275\354n\274=\024\266\223=\275\264\210\275\257\211\033=\376\262 \276\260sK\275\266\262\343\274f]\323\274\211%\205<\r\235\001\276mC]\275\374\275\342=\022\371.=,\2507=dC.=\266\325\255=;\353\005;*|\354<\315\024\353\275@\005\266=\3430\315=\337\017#\275u#)\275\374- >f\360?=\306H\355\274\010[E>QS\206\275\362\360\020\274GD\347\274\2310\257=S\263\001<\326\226G\276W\365\273\274\236\262\200\2746\226`\275\252E\367\275\244;\234=\202^\221=UY\243=\307Y\010>\230\244\376\272X\254\\\275\222\355\220=\335\365\255\275\204\266\327\274\251\336\210=f\237\253\275TdK\273a\n\354=\025\210\231\274Pz\263<\026\365\271=%\351\205\2751\2454\274C\235\013\274\220\225>\276\300\244\005\276\335\344\274;\205\315\277\275$\026\322<\372\377\233=\265\361\270\275\224}\r=\004{\t\276\366\371\037\276\252L\032\275\372\2005=\016\356\317\275G\r3=i\t\354<,\003a\274t\024!>\246n\343\274\246\273L\276\246c\007\274\310wc\275\226\004\273\274q\003\323\274\317\205\351\274\315A:\275\344\363\001>b4\020>\005T\312\273\177\014M\275XU\030\276O\337\254\274\3205\346\274\222T?\275G\374\001<\200\300\321=\245\255K=\340(o\275\211>N=\200\262\270\275\274\263]\276\036\023u=\361\371\034=\340\333\">\366\3633\273b%\224=\206\275\325=\337\307\266<\351\324\005\276\234\256]\275\016\223\303=\323i\267;\340\275\027=yo5\275\321\375\350=\n/\202\274\030D\001=\322Zk\276\376)\204\274\371\262\370\274\227\000R\276\210\r\021\276YW\177=-8\026\2750Q\233\275\321\242\220\274w\241^\275\235\022->\216\317\352=TN\355\2751\257\275\275\n\306\261\275j\226\211\275M6\245\275\037\246W\275\234\311\340\274\r\220\342\274\325\214\332\275r\006#\275\314*8=\205\222`=\360\326\026\276\262\261\026>#\274\343=c\2575=\2435\006=dh\000\276\271G\234=\371$e\276\314M,=\253\355\013\276u^\325=\006\0022\274\000\245\351<\013\030\022\276?\000$<\321?&=\036sD\276\335\224]\275\222\271S>r\344\027\276XX\023\276\214\357\"\276\017\333#\276\255\345L\276p\333:\276\200\300\302\275%\327\">\025/\023\276\000S@\276\374\r&;\316\214?\2764\267#\275\212\n\357=K\256$\276\371\214\005=\377\206\302\275\266^L>\352/4=L\230\236\275S\020\r\276\341\345>\2751\016W=\310\021D\274\277\312\037=\245Q3=\tb\331\275\311V\'>\305\217\\\275\024\272\024=\006(\316\274+\222&>a\2528>\202\026\030\276\360)\300=Gj[=\230\265\004\276\303\033\333\273e\272\270=\004\r\232<\240\350\247=j\267\027>\257\025\346\274\024\202\334=~\347&\2739\356\022>H]\250\275\017Z\355\274\021\024\022=T\0040\275\243\227\014=|\302\255\275\302\306\235<\322&\336=\303\323\227\275\315\337\021=\272\237\022=f\243\205\274\331\363A=i\016\346\275\374\263@\275??:>\337\316\031\2761`\355=o\367<=\312\213\025>FP\003>|g\235=aI\263\275\"\374\206\274M\353\340=j7\335<\346\361S>MR\302=\202\246V=\365\357^\275VYP>]\213B=?\223+\276%\363w=\210\006\235\273P\017\017\275\017/\310\275\312\213+\275\252\311\231\275U\244\304\2745\225\020=u\212O\275[\251\321=$\037\213\274*;3>$\246\351\275\037\311\245\273\200c\226<\"Jc\275\263:\013\275\333:\262=\205I\'=\256d\034\275\343J\005\276\246\222\370\274=\027\375\275\346\267*\276\267\245>\276\037\374\032>El\"\276:\307\306=\177\3011\2752w&>1\337\203\2756Dr\275\302\364\206\2751?\371=\304\030\342=EK\317=\213r)\274\336;\377\275\373\274\374\275\"\363\366=\\\"\024\274\330G9\276\005\204\333\2758\357j\276\rm\021\276W\217\270\275\343\010\233\275\3411\231\275\336p =\357,W<M\210\277=}z\225\275\333\021\337\275t3y\276\252\355\030\276\321\312\204=\010\345\247=\013c\031\275\212]J\276\014\362\343=\034\247\334\275\251h\014<4\302\204=?\222\261\275\006\323\034\276$a\025>\355\r\330\275t\236\230\275\0005f\275h\030\023\275\321=E\274k\3051>\316\253J\275\270\217\277<,\267\275=\374D\031\276\3338\021>\177\030\020\273\332{\263<\210\rS=M\314\305=\310\260\315\275C\246\216=zQ_=\242*A=ed\025=T\212\322;\304\021\206>\320,*>\232\227\321\275g\004z=\373\002<>\256\206\024>\272(`\276\202\333S>;3!\274\036\232N\2746\253\205>\025b,>\027\242E:\372g\220<\313Y\023=A\016\210>R\332\307\272\271e\360\2751\233\351\2758\370K>B\246\322\275\267F\003\275\320\215\376\275\305\332\020\276\202\365\375=\227u\340;\231\256\000=\271\351\357<\222\243-=V\240\314=\316\2279\275\363Q\255=U\206}=\250\233S=:\233D\274i<\341=2\210\236=U\202\216\275\313\332\004>\"\031\016>~\006\252=\341s\365=\376\200\026\272\303~\271=\375{\235=\034\213\334<\332\226\034\2760\222J\275\250\330\337=\370\251S=^`\263\275\241(\002=\251\336\277\275*;\366<\033\213z\275L\337\373=N\222-\2755\2713=\346\267\"\276BtR>\026\212\213<\362\364\"\276Hk\261\275\374x\t\276\037\374<>=\300=\274\274\213\376\273t\275\022\274fjh>a\312\320=\305\327\241=\275\256\212>\277\303\315=\312u\'\275\232\030\362=\376\331X\275\364KG>\2508>=\334\333><\270Be=\004\031\343\273\356c\007>\017o\251=k6N>\n;\303=]\321\252=%\233\037\276B\310\200=hd\213\275h\375 >^i\273<\355\351\241\275\305\314(=\243x\201\2756\324\325\275Od\230\272rl\221=\323\265\272=:\364\216=\017P\036>\013\365\264<\201+\257\275\247Ob>\204*T=\234\tG\274\2472\034<\230\275\021\276H,~>\0203y=)j%=d\266b\275\250!\033>\316`\027<cB\237=\025\355\277\275\024\337.=\336J\005\276\316\206\025\276\236\217i\275L\270\006\276\272L\024\276\212J\024\274ZE\330<\204!\274<8\365\010\276xI\347=\312\324i\275\006\032\216\274~\007\016\276\235\233\017\276o\230\201\275/\323A>\335\3429>i\340\035=\302\'\247=\007\367\273\274\351h\331\272\033\033v\275\304\236q=(z\213<Lu\010\274\332\342\n< \276\275\2757\312-=\264\347\255=\247\370B\275\311e+<\240\242\010>Vo$:6\376\374=\345\230 \276\346\007\372=^6\351\275\360[\n\276h8\215\274f\3542=o\\T=!l\373<\221@_\276\216\374\305=\3342\307=\233\327\216\276&,\277\275\304\352\307\271\243\004\231=\200\313\340=SZ\242\275\022\002\246=\030\300\032\275\323\204Q=bG\340=\007\344\037=S\375A<\307\343\312\274\202S\017=\3666\023>\315\341n\275t\\\306<y\361\260=\207|\353\275w\300\222;@#\367\275\343q#>\237l#\276kT\037\274\272\205\335\272\026j(\275\334\336\305=\243<e\275I\336\237\275\233\034\007\276\206H\367\274\"@5=~*\325\274mP\246>\362\346\246\275\336U_=\263\266\036\276h\200\203\275{\317\243\275@\357\353=\020\212r;\361\343\303=\276\232\277\275\315\037\213\274\r\277\003\275\014U\303;]),>\374U[\276\031\266Y\272J|-\276o\276.>\227\306\374<K\351!\2762\316\240\275\260\376O<t:\221<3i\344\273\'\356\210=\347\031\022\275\276>!>\333XW=[\212D\275\027g}:\361\017\351\275h\272S>\264\340\317\274@\277\332\275\265\274>>\206\'\346=\226\020j>\301\274\231\274\306\300\003\276\366\315\312=\026\320\032=\266\021\006=\345;\361=*A\214=aq[\275_\204\307\275\023\333\215=F\346\263\275HF\276\275\314FM<w\016{=\230v\377\275/Fn<i\330\361=Y\223\312\275j\035\007>A#\256\275J:h\276h\322\315\275\312\004\274\274X<\034\275\371p\322\273\356\304\001>\327\242\002>\260-\233\275w\332\016\276\351\020b\275\366\277\004\275\340\300\200>\033]\035\276 \314\203\273\340\026\264\275\002\222\220=\264\0045\275X\262\336=\324_(\276]l\253\275Q\333W<\336Y\266=\314\224\240=\325\227\245\274\020\260\332=\r\246\232=Q\235\320<a`\235\275I\356\361<n\0163;\235\343s\275\323\326R\275\344\'\246\275\371\017\272\275\"\260Z\275\272\032\302\275\310\211>>PU7\275\254B\353<\204\022]\275\233\320E\275i\304\374\275\t\275\343<)\262Z\275\2179\306\275\233\254g\276\323\217 \275\002\203\323=\220\212J\275)\3330>z\365\351\275\336\334\021>LN\357<\350\030\323;.6\231\274\335e\004\276i\373\300=dp*\275\272\002N\275\003\270\272\275\\sm\276i\226\327\275\217+}\275\255\225\312=\364\255\236=\004\373\374\275\240\320\010\275\243Q\220<\2042\037\276\314l[=\224`\302=\224\354\374\275\005\261O\276\301\206\314\275 \307X=SQ\241=\373\257!\275\206\314i\275I\316\253=\227\333\023=\250-\246=\221\221\255=I4\311<\002\220\030<\002b$=\220\2216\274V\325S\274\225^9\276\031QH=m\350\230\275\350C\017\276#4e=\215\322)\276\357X\000=U\320/=\2537\016\276\334\307\204\276\315\t\212<\313\253?\276\271\213\025\276\252\265&=\251T\353\274/\201\003\276l\372\264\275p\007\034\276k\276\312\275\277H\014>F\034Q=B\031\033;\357\n\031\276\254\3716\276\233\2523\276\305s\277<E`\220\275\2620L\276\211\261\363=}\\\345\275s\273\336=J\346\332={w\253=_\254&>J/\344;8\301\006>\n\022\031\275g]\230=\013\253\006\276\030{m\275m\033d\275\334/a\276Lx\250\275Z\"\341=\230\376\256=\325\034C\276\377n\017\2768\232o=aR\226\274>\276G\276\270\242\016=\247\347\340=\370\362\340\274?S\202;\274h\266<\326\245\027\276\377\027\226=j\275\326=\260b\304\275:aE<\025\204\3329\323\244\247\273\255sV\275\231\372\352\274\215Q\007=F\242\340=\333o9\276\362l\035=K\311\321=\254\021;<\004B\233\275BX9>\'\325\270<1\376~\275\214\312\360\275\342%\352<\243\217\311\276\306\026%\275\206x\222<\017\243k\275\207\t\201\275\212Zu\276rO\332\275\2740,\275\037)\r>4\016\347\275.\021\026\276\235\217\276<\254n\251\275\367\354\010\275\233A\007\273-\303m\275\005\266\200<\271|\372\274O\362\264<\013\036b\275M\364K<\245\344\371\274\337i\031\275\240\203->\036\005\301=9\376\310=_\000$\275\031\322p=!\335\026>\255\277.;\361\031\212\275\375v\256;\277\245\207\275\332\001\267=\310\355\014\275bn\224=\301@2>\232\201\220\275\"sJ>\221\275\247=\253\033\014\275\307\367\244\272AC\243=\2428S\275X\030/\275\024p\351\275ba\323:\201\205\241=k\263\260\274\037\365E=\277\301\220\275\020\026\037>Y\352\252\2753[\262\275\033c\001>\354\024\027=\325\226\021>\314*!\276\300\376\014=\021\307\213\275\232X\037\274\313\321\341=\3501\262\273?w\325\274z\324\013=\344QA>_0\307=pG\021\275\350r\364<\267\004\220=\2135\234=\024&$\276p\274|=\261\344\220\275\357\302\266\275\t$\342=u\034u\274\277\222\254<=\271\277\275\033\264\255=\310\365$<\021\225R\274\354\026\237=\312\221\347<\021\022\r>1\036\332\274v\221\020>(\250\233\275E\311\305\275\"I\036=\001\344}\275\021\037\222=\343\366\304\275W\277\004=\024_A\276\231;\377=/\237\376<0\257\222=(\210\254\275\253\0108\276\n1(>\347\307N\274\n\n\323\274\325\250O=*\037\000>\366\202\023>\335\\\333=\2160\252\275\225k\241\275m\325\263\274\216\023\331\275\224\374\220\274^\347m=Ql\260\275M$\005\272-;\032\276\013.\014>\000\357\367=\377\2134=\321\314}\275\224\214\311=B\024\024<=W\243\274\215\223Y=\214z\251\274r\217\000\275x\337\005>K\246\025=#<\203\275\305\222\014\276\036\000\200=\033\340\031>\314\030o\275_\311P\274\263x\235\273\260\255\205=x\276\354\275\326\252\256<\274\215\274=\241\361)<\006\017g\275p\340\005=\221x\271\275F\332\023\275\030\250 =/\032\274<\310\3241\275U_\305\274|^\273\275\335\004\236\273x\245\005>\301\273\226\275U]\224\274=\252\357=\341\255\266\275\325\227W<i\241\r=R\324\033=Y`k\275Y\323\003>\335)5\274(c\215=\247\330:<f\316 \276aMc=\376\340\013=\254~\366=x\351\257\275N\276\r=\215\207\021>\n\251,\275\016\373\325\275\010\376\204\275\365\302\026>\336\302\026=\2164\316\275<\222L>I\321-\276\221\026\014>]\303\203=F\326\205=\251\321\327\275y[\334=\261u~=F\001\221=\037\310*\275-&Y=\343\325\202\275\214h\366=\257\241\316=\376\241\027\275\211\206\023\276\260>0=\227\001\356\275\010M\271<(\236\274=\356 \026\275\211B0>h\342\277\275\206\r\247\275a\363H\273Y~\226\274\002\\\217\273\325\024\017=,=B>,t\263=\264}T\273\204-\361\274\257*\310\275\212\2446\275%\375\203\274\3737\024>v\241\321<c\357->g\016\025=\323\373u=\355\001\305=m\330\013\276.\311\021=\025w\233=\2618\214<D \r=\013\227\205<(\320\336<\003z\261=]\337\227\274RP\014;\313\250W=s\223`=\203O==\350\266\227\275\364\371\224\275\206\3304>\254\032\305<t\251/\2750\352k=%\251\344<\340C\303=\034\016\335<\3362\201\275\213F3\276\220\206\017\276\020\364\226\275\242v\213=X\027_\276\242\322\357\275\230\315M9\316\363\251=[{\375\275}\322\027\275\023\023!\2765\302)>\332/\217\275d\271\200=\360\"\340=N\036\333=#(\t\276\035Z\376=\215\260_<\345\210\273<\222\265>\275Q6R\275\030m\235=\217\372\366\275\\\231\300=\256\3668<\374}\033\2767(*\272?|\n\276\243\205P>\371W\001\276\327P\367\275)\355\362=;v\236<\330\345C=J\337S>\236\302%\276\246R\212\275\340!\333=\024S\001\276P\261o<\234\345N=\213\227j\276C\237Z\275T\306\016\276\262\376\206=\371\366\006=\023&\303<\275\3005\276:\037\223=\215\333\035>\033D`\273\342\336)=8\013\276=\364\377\257=\354y\\\275\216_\315=.\306\222=\307R:\276D\244\024>\017\322B>\304\222e=\265\332\324\275\360\2303>2\010\316\275\225A\020>^\224b\275\207g\302\275\373\200\267\275\343\262\240=}\322\224\275OI\213\274\315\355%\275\206\275R=\204\337\233<\222\216S=\270\366\243\2751\235\245;\333\242\324<\026a_\275\254?\220\276\276E\264\275\350\224B\275\033\027\002\276&f%\276\337\016R\273\323\275\210\275\303\335+\275\322(J\275\321.\247=\220F\202\273M\244N\276\334W2\275k\217\005>J\217]=d\022\030\275\211\326\242\275-s\206=\255\205\242\275\257.\242\274\035\325\020>\024\245\027<\276\224\000>\356Q\\\275\036p\342\275\32251<\"3q\275 \237\\\275\224\261\320=\220\017\240\275\3344{<{\t\212\275\351\035\211\275\2210\247;\337\300\362=>\232\352\275:\2546>\234\271\027>\254\217\220=\313\372\025\276\325\267\007=`\021\335=\377\250\201\274E\r\324\275B\300\310=*\235\376;\350\2620=\201\237\342<F\224\256\275S-]=\231\r~=kJ-\275\004c8<u}D=OE\320=P\020\257\274\327\3166\275\034\204\037>\211C<<\321GP\275\262\224\331\275\274\201>\273\260v\006\275\034^\260;\216\036\273\275\260b\276=`\234v=\316\326<=2.\214=v\341\270\275nQ\n>\233:\303=)\364l\275\210\353\231<\020\377\321;\310\263\211=\370{\002=P\030\262\275\374\350\321=OH\217\275\233\203\036=\311\224 \2760?\017=\000\252\205\275\232\215\034\276\273\006\236\274\010\255\004=U\326\367\274\024\252\271\275\245\001\\=$k\031>\275\235\321\274\211\261\027\276\310j\362<]\320\233<\322\370\357=\0342-\276\275`\010\276\273`\004\273\357I1\274\321\215\202=<\'+>\004\003\372=B\004\313=\344]i\276s}\350=\360\002\r=2=F\275\353\257\030>\300P\004\276\\/\313=\262el>\272\256\271=\210\336j>\365\254\240\273\001\223\010\276\246\264\257\274\020bG>\235\rR=\007\237h>\211\310\037\275\320\243\255\273d/+>\347\362\221>\305\004\266\275\025>\037<\351*\353=\214\236\006\276\235\241\271\275,\337\223\275\370\025\342\275\324\225\235\275\200\313\255<\306\005\302<\024W\337=\001vA\274\352\361q=\334\3259\273\334g\233\275\226)\230\275\263\374(=\003\267\026=\007=\350=\300\245\002>\n\2240>\231g\026>7*x\275\373J\220\275[\007D\274oL\204=9\251\362\274LZ3\276D\t\226=\313\373\265=\273\213\202\275\252W\373\271\333\233\214\274,\016\223\275(\010\352=\365\201\371<\020\230\363\275\373\302\344\275\250\350 >\262X\304\274\002\267\234=3\301\010\276|\364\204\275C\256\244\274\005>\025>\355O\225;\352\305\264\274\216\004\265<qlE>\275\244\032>\222\'=\2760\342\374\275\270\222\310=\034\357\343<\303\361\033\276\310\204\004\276[T%\275\342\330:=rL\267\274z?.;\267\020\201=\204|\356\274\367\2732=j\362\010\276}\255~\276\375\003\035\276\014\327<\276.\277\215\275\353^a\276\341c\277;\377\031\317:\215\254\315=\265|u=\344D\031\276\205\245\360<\3415\240\274\256w\374\275\312\372\"\275]\225Z\275\2579\232\274\340\324\224=P\321\230\275\247<#>$,x\276\034_\220\275\236\243p\275m\267\256<\322\340\224\275\351\2277=\237To\275\316H\332\275T\353\370\274\262\243\3519fh\346\274\231Y\362=+p\205\275\373\334!\276F\'\376=\275\372\206\274\202V\231\275\220I1\276C\366\377<\271\' >\2500#>\342\201[\275}6\006>\261\243p=\213\330f=\317h\361=Qn\360;\305\373\262\274\205\330\237=\3253\002>\251\237\365=\217q\200\274\227\n\242=\257\321x;\225\035\246;\374\231\262\275\032\235\301;yp\214\275\351\013\006>D\251\224\275\014\355,\276D\337n\272\213?\253\275\337\312P\274\331\2239>\254\265\331=\336\210Z\274\036\220\243\274\334\277\366\275W\302\014\276\250\366\262<|R\006>\272\340\374\275\010X}=5\004&\276\257\214\027\276\000L\206\275\252\316W>\242\027\337\274\235Q\232\275\355H\334\275\374\315\027>\272\2700=\200E\236=wd+\275w\306\313=\267)$\275\223/\017=\337\232\034>\252\034\'>\313~\277;Q\3608\275\336&\376\275\253\363\311<\303{z\275j\030\210=\016\006\203>\303\001\264<\004\324\226=\204\225\255<v\240\362<W\3707\274\362\301V\274^l!>\264\204%>\234\013X=Mv\377<\0348\273=\204\221B=\365\347\n=3q\333=\326\303b\275\211f\225\2746I?\275=\236\333=\025\203\261=\310=\251=Z\255\027\274\275\266\212\275@\363\025>A\353%\275N#$\276\306\241\262\275C\210\313=\034\242)\276D}\232=\245\031\204=D#q=\253\277]>g\377\327<\314\267k;\374\303\200=\340j\377\275w\235\002<\207:\'\274K\214\240\275\375,6\275\251\321\302=\206\200G\276]\\\020\276\r\r\031\276\020+\370\274\371\227E\276\307\255W\274\201\306\344=\344<w=\177)\375=\243\177\033=V\\G\276m\022\206=\351cs= G\236\275\343\r\204\274\235bo\276\202>\355\274\340[b<\n\356\352=\204H\372\275\261]\225\275\252\351#\276\312#B>\026 \222\275\240\335a=3\201\025>\307\2617\275\361_C\275Y\371\004\275\312\373q=F\210D><j<\275\020\210\376\275\363\032\332=\t\331$=\325\343\215<7\004u\274\325\232\017>\240#\266<\203\340s=\307\231\205\274%\037c\275\270\345\353=u\204i\275I\242e=\003\336\246\275/\273\017>((b<\252\231\026>@\3424\275/\221\023\274 ^\257=\233|\237\273\277c\350<\232\"s>\236s|\274\360\256\236\275B\340L\275\301M\213<\333~\010\276\232\333\213\275I\016\320<<pT\276w<\227=\300\"\335\275\003c`=\002\371\n=\025\001\002\274\261p1>\361\316\271\27501\266=\373(\355;[\326\246\273u\343\004\274\351zN\276\346^\310\274\001\013&\275\004t\252=\307\242\324=\363\342\354\275\324\251\202\273%\254\275=\236e\312\275Lbh=0\225\251\275C\241\276\275C/\217\275\300\216\200\275\026\231\232\275\316\226\026\274TO7=l\330r=6\275\350=Nx\343\275\302\346\022>f\264p>L\032\034\276\262X\320\275&\205\365=g\006\3017L\365K\276+\350\237=]eW=\205{3\274\3127{\275\205\361\367\275r\035\307=\213\2078\276\227*,\273\3440\210=\"\033\271=\253\266\234\275\274!\376\275I\321\001\276:\306$\275\270\326\305\275\314\253N=GS\352\275l_7=-\031\240<\236\353\016\276\324\206\236\274k\330\336\273\033p)<\310J\377\273\"\014,\274\365w==M\313\271=\310\034\222\275\017\240\275<\262\373Y\275\022\314\213<4\020\347<=Vj\276\346K\232=h\030\006>i\361\016>\263\241\220\272\345\2420\275\341\r\004\275V.\177\275\346\215(>SD\345\275V\334(\2759\310\335;\355\303\334=|\320\247=\236\302\335\273d\354\000\276\345\331=\276\315\203\010\276y;\017>2\347Q>\272\223\240\275\361p\"\275\3536t=\340\243\320=\262\030\033<>\262\230=\034A\237>\373L^>w[\302\275\240\220\n\275\314\t\260\275\362ZL>JK\357\275\237|\375\275\304}\253;8^\200<1\301\n>\367\304\256;SW\223\275\355P\241<\274`\203=\232\326\243\275\0163->#X\220<\217\007\306\274\003\265>\2756\004\206\276\257\227\240=\361\226{=\223\'\372=\243H\030\274\032h2>\367\0170>xy_>\235\177D=v\224\341=\ns\303<\354\245(>vO\262\274l\226\221\275\324\353\013<-uK>\007\347\330=\244m\312=\331\032\211\2741\256\306=M\257\031>\"3(<\226La\275\355\272\333\2742\302\201\274\371\236\215=\354\342.=\267s\023>\232\013\343;\037\344\224\275\333\200\321=\274\361\316\276\365\241m>\361T\212<\243\r\315=PSB=\212\351$>UOY=E\274\301\275Ec\202\275\353\214+\275\264\214\267=\337\026\256=\304\341\325\274rk\267=\307\t\205=U~T=K\316\340\275W\242(>EZ%\275\340s\034\276\356\320\342\274v\005\002\276{\337\227\275Uv\r=}\337n\275\345B\271=\264Pk\275o\303:=\215:h=\327/\023\276\361v\352\274S\337\035\276J\260\237\275nj\323=^\267F>\334\245\275=\304eF>\270@\030\276g\306\021\275\306\313\277\273\310:\010\276\215[t\275\355\006\300\275kj\240\275\257##\275\232m\311\274p?&>\276\202^\276:\355\353\275\274\005\303=p\316.\276\310\240h\275\362\276#<q\270\317\275}P2=V\323\022\276\207\254\005<C\3448>j\233Q\276\nM\263\275\205\365\304=|;5=\304d\331=\320\337Q\2767\372\303=\000*.\276\265\004\\=xd<>\304$\312\274\tu2<\335\307\253\274\231\370\241\275Z\334\n>\023\337\211\274\355c\375=?T\244={J\230\275p\374\301\275\t\030\251;\364\262\345=\371\t\224=fI \276\222l\230\274{\0309\275m\346\311=\'\301\370\274\000Km\274O\036\240\274\275 :=\217\236\321=\217\324\241\275\375\204f\2740\236\210\275\214\310\003=w\243\317\275\202\2675=\336\025\232=\242\316\014=\224\241\323=\253u\272\273\201\361l\275\345\230\333=\273\313#=\342\351\311=K\256\211\275\234\343\245=b\017\220\274U\013\323\275^\214N=\267\340J\273\261?\n>\020\206\246=\216\267`\274\366\210\346<^\330[\276R\253]=\325\267\303=\355A{\275I5\263\274^\234[=\340?\351=\243\253\014\276;\222\223\275!\263M\276\346o]\275\314\360\366\274;\345\270=g\310%\276\016\3517=\301\331\270=\250\327\242\275\274\t\010\275@\300t\275\344\341\316\275\356\221\262\275\246Lq\275\234\221\351\274\'H\274\275W\236<<OV\216=\375\317\362\274\276f\206=\252\344\357\275\316R\213\275F5]=[\036\013=\325\365\210<\025G\207\275\327\026\370=\216O+>\003\205P>\326\222.\276\271\177\313\272\275T]\275\356\020l\275\306\',\275sUq=\345\373\007\276\214\034\002=^\240/\272i\351R>\266<\351<l\326\024>\337N\t;\213\200\255\275\307\306\233=\2257\335\275\375\366\252\275\220!\035>#`\254\275T\000\360\275<\305\027\276b\306\006>\274\222\034=\231\3267>S\224\350=\215c\"=-\253F\275\275\2140\276d\014\347\272e\304.=[\3410>[\021\334\274K\376\305<\275om<\017<\242\275\326<A\273\252&\300<\355\353\257<\352o\000\276\314\212\022>>?+\276\255\205B>\241\277\n=\267!\212\275\245\372\224\275\365\261\237<\261\022\r\276\205)\024=\227\205\370\275\272\350\254\27511\301=\234M\001>\261X\214>3\223\004>\247\356\217=\230$\204\275\377\3469>\315\214\272<\300G\002\275NvF>\226.\234<Y\327R=\200u\223=(\237K\275B]D>\222\030C<\r\345x=m\341O>\370\352O=:\t\205=$Dx=;\234\222\274)\236(>:\370\t>(\221\274\275\355/\024=a\363\220=[#\007>Y\225\'=f\305\361=\227\361a>>\037\366\275B.Z\276\224\212;\275nSV>\336Vm\276l\330\027=;0\"=L%+>o\342\002>(\375\005>\026\356\226>d\377h=\252n\367=~i\276=g\330\246=\277\230\n\276\230P)=\355\332\003=\260\"\210=\372\031F\276$\3112>\372\005\355\274\257\337A\273\034\3738>\231_\200\276t\245\006>pi\\\275\211\232Y\275@\224g\275V_i>\253\314y=0\373\253\274\266\364\024>\200\006\031<\242\263\225<\036\254n=$\245\005>\203(\025>s\304\241<\253G\275\275Y\342\n\276\256\307r<O\262i\274>\302\252=\254?\257:\000dU\275\231|;>\351\243\306<\t\'B\276.#\236\274.\332I=\251\024.>\324\207\212<a*V\275\201\\\235=\246\270\r\276B[\314\275\310k\303\275\334\331\006<\324\371\273\273^\271?=t m=v\312%=\016\252\253\275\257\233\n\2760\363/\276\356\216\234=\300}\033\276\211\236\001\276,m\334\274O>\032\276\334H\006\276[\212\337<\302\353\363<=\264\014>-(%\276\346\211\331\274\022\034\215\274+\364t\275\335\305\352<\026\376\326\274\201l\r\276P\206=\276\313\"\214=\374\004\010=\023E\244\275\240^.\275\345=\215\275\217\241\r\276VQx\275\212\342\301\275\311\275K>N\346R\276\221\032\367=\260m\207=\213\340E\274\007\303\003=]\346|\275\340*\030>9\267\244\275\215\'z\275\224\233G>\024\r`\273\307\361\\=\312v\020>:,\250\273\357\301}=\253x\336\274\t\234\277;\227B\210\274\371\020\026\275~ua>\r\251\243\274\366=@=1\351\020>\314\221\321<(\320\367\275a\351\375=\237\202C\275\206\335K<~L\036=v\330\001>\013\034\000=4\277-<\'\032\010\276\366X\014>\002\346\365\275;9\025>4k\303;\350\007\025>\322\000\311=\353\036\204=!r\034\276{\320[\275\2358\277\273\332T~\2740\345z\2754\n\220=Q\256\326\275z\314\031\274\244p\004\276\311&\357\275\2421\300=W1*>\030\331\224\275\212\270\256\275+\266\034\275\227+Q\276\212s\354={_>>cZY\274\243\013\264=/O\232\276\005\007\314=\216d\207=\224\336B=\266\342\245=\221y\005\277\354\356\\>\345C\244=\260\237\">j[`\275\255\246\">L\364*>\016\3265=\243H\\>\3466@>_M\300\275\273\363\246=Qs\035=\274d*>_ \273<\303\316g\273\374\353\206=\266\377Z\275^\014w=\331\313\203;\r\000D\275\322\243\340=\217e\367< \023O=Q5[>\336\337C\274\275)\\<v\242\024>\017\352\177\274\242Z\267=N9\362=\267\273\204=\010I\275\272\350N$>\027\030\000>\260\367\240=\273^\314\275\026|\202\274gS$\275I\333\245\276\330u\370=\277\370\027>\206HE>\366~\311<\027\004\246</U,>\3458\236\275#Kl\276\334\253\371=\007\333\022> h\200\275=Z\245\273\010\203\336\275\243\204\251<O\0075\276\322H\276\274\256\271.\275N_&>\212`\013=>\333\013\276\260\321\"\275\220\321\230=\rdH\275\242/5\275Zmy=\352eJ\275\032S\307=\365\253T\275:\267==\357\204\321;5g\201\275\332\241\034>\022X\242>\036\327\374\271\317J\275\275\251c7=\244A\t>L~\035=_\373d\275\363\300\230\275\366\203k<3{i\275\353\333\260=\326\266\351<\234\236K\271;\241,\276m\010V=.\2373>\371\377\224=\216j\212\275\305\222\327\275\311\343\230=?-\251\275\022i\331:uFj=\n\\\226=\324\223#\276\006\355\263=\0225\037=\221\227<=\206\227\366;J\225/\276\222\344\337=K\312\212\275\362D\331=X\362\337=\256\207\351;\377\366K>\216g\343\273\247\351\200=5\312\t<b\365S\276\262\226\001\276x^\316=\344\300\315<\222j\260\275\265H\311=&\277\223=K\200\256\275\373g\257<\320\037\346;\260\300\211=\201?}\276|\265\361=\220Gk\275\342#2\276\207g)>\301\0210>\206\343\251\275\003\004\202=\327\376y<\304\325V<s\243\271<-\362\257\275\302\260\330\273b\257\316=%\363\370\274\242\316(\276|\271\360\275(\336c\276\231\001&<V\017Q\276\255\030\201\271dr\002>@S\243=\324\357\020\276\211 \273\275p\272\'>\347\237\374\275y\352%\275\334/\006\274\302J*\275\t\262\212\275\337\262\326<J@\334\274\002a1\276\030,\013\276bN;\274\272\340\032>\237\253\323=\200~\023\274\223o!\276TYI\275`\346\211\274\214E\263\275\324\341r:\256rb\275\023\323.>2c\252\274 \377%\276\347T\234\274\315S&\274\203\017\204\273\274N\245\275\010Y\230\275\nGU\275\034\256@\275]\321\007\276b\220\023\276\300\225\320\274\335O\276\275\332\n\301\275\3177o\275\t\354\201\273\346\0277\276\245\204\356\275\303\3567\275\222 M<\317{\210\275\311Y\233\275J\0361\275\272\360X=K\013\276=\355\246z\275\001\344\262=\302\021\010>\227\342S\273N\002\215=&\252\320=\037o\033>%a-=\257)#\276\022\276\322\2758\256\030\276\371R\237=b\277?\275\372\325\374<X\370\304\275\306\234\211=\007\327\372<n\362,\275\024\035\315\272m\372\032>\273\202/\276\235n\354\275F\211\212\275a\215\260\274\256 \000\275\324\304i\273b\243\234=GS\340<d\375\262=\344X\026\275\002l*\275\014=\316\275\220wy=\037\332\305\275\rv\"\276j\277\363\274\374^\340=\357\240\303\275\255\231\'>\206O\344;\323\261\263<4\2362\2759k\006\276\266\370\021\276!\024\200\273\3221\221=\213\027\354=U\2546<\356\031\363;\221\377\001\276\0360\237\275f$#>As\276\275\'D\217=8\2354=\227\320\017=ih\005>&=C\276E\231\326<\251\202\353=\010\277\004\276\260\332R\276\373\252\201=\335`\305=\327\347\243=\212\r)\275&_I<\207BF\276w\352\031=\272V\226=D\261z=\257\335\311=B\331<<\000\005\267<\344\003\356\27551$>Z\034\231=\220\351o\275<\355\316=9$\363=\022=*>8\361:>\256Ws\274C\303L\273W\201\312\275mgX=\334L\273=\304\024\002\276\0016`:S\276\004\276\210s\367\274Fu\334=\331\343P\276)a\226=/\327\252=\224C,=1\267\005\275\341\013\027\275\242\310<\276\261\252\033\276\211\264\221<\025\036\302\2759\274\014=,!\263\275Q\341x;\t\326\347\275\037\201\032=\002\026\031=\365\370\224>/\2522\276\233\n\336=\305\253\266=\341\206k=3\271Q=\003]\013\276}\364m\275\223\032\177\275;\221\370\275\202{\370=Z>7\276\307R4>f\r\261\275\'\255k\276\224\"\204\275\233]p\276!\241\244=\214\273/\275\021\342\t<\226\231\205<\004\252(\275\335\357\016>F\220t\275\036\nr\275\r\347\226\2751\363\035\275\362\210\205=\236;\325\275\207\275U\276s\260\301\274c\221\343\275\340\005\364=\207Q\327=Y\373B=P\310\366;mg\204=\252\327\014>\211\337G\275\340F\000\275\361\244\235\274\032A$\276\241-\234=n\242\213\275\"?\025=\262\231\355\275\006(a\276w\307\233=\2432\255<\214\267\330=\204\035o=\351\342\345<8\271\017>g\227\253\274\013\260\007\276\177Q\252\276K]\336=[\322\036\275:6\362\274\364\200\222=}>\213\275\360\003\271\275\271D\276;&\363\034=\004n^\275\367;K\276\234H\205<\3237X\274Z\245\305=K\022\312\273\356Ch=\303\305A=M\270F\2764\3707\275\344;*> G$\275\245\366\272\275x33=\237\2738>^\363\276<\031/\353\275\231\356\217<\033\331\335\2752x\216\276\004\315Z=^\005\303= \006\030\275\001\010B\276\324\372P=I\204F>\207\357\017\275uy\204\275\010iH\275\032\206\244=\022c\212\274s\362X\274\320\017\356=h\205\301=\270\030\242=`\336\254=\275\2529\276\003TO>\017\316\255\275\021\330\234=\343F\255=\306\242K>S\364\342\275\306\230\005\276&\227\266=\033\204\253\275)\212\301\274\251?\270=\252\273\027\276Dp\335=cd=\274\rX\273\275\024|\321=\236t\361=\316x>\276\357\361I\276\334\315k\273\022\201\266=\235\357\253\274\2112 >\351\206/>l\330\005\275\366\222\364=[\230\355\275\002\360\365;\242l\331\274\241\217\025<;\244B=\037\326$\274\002\320\223\274\253\324\001>(\025\024>5\334\025\2754$A\274\343E\025>\371%\254\275\344\207\254\275R\005]<1^J\276z\260\374<\254\225\220\275\363\005\363=\320U|\275\344\367\254\275m\341O=\301\241\264:w\325]=\3106\315=-(\311\274\311\240(>\346e\201<\003\n\320>\213\261P>4\230\314\275W\"A>\364\363\300\275`d\327=->\343=y\\a=!\207\035>q\336\006\276\201\320M>\354\352`>\207`\243\275\234\255>=\r\224\246\275\205\211\023\274<\323\000=XP\216=0>B=e\210i\275\342\212\247=\031\036\212<G`\207\274\371a\010>wZ\204=\261\244\347\275\301\021O=\307\351S\275\207\221\353\275\360\035\336\271\300R\023=zR\277\275\371\223\317<\323\"\234\275Oy\232=\020\0026>\266\264U=>\304\306=6\375\001\276\214\334\244\274\257\323\307<\256%\223=\346s\232<O\373\354\275z\343\225<\273=9=\277\211\343\275\251\366C>\332\227\242=\353\331\'=\335E\253\2751\304\237\275g\231\">\344h\214=0lB\275Yrb=F=\254<e\305\021>\037\367:<\177\330\017>\336\231\201=P\311\250\275\234\264\247\275\007\222G=(l\007>|\023\337\275q\352\374<64c\275\251\240(\276\372f\t=\3621\004>\204@\013>\014\302u\274\224\245\226\275\352k\016<e\010\350\275p\333\274\275\267bE=(\357\357\275U\031\274=\237\323\n>H\347\007>AaO\275x\346\303\275\037\211\337=\220.U<\323\036\010>,\260\230\274\345`\030\276\004&\246=\\l\001>\250\235\024\2763\326\023\276\240\361C<Jf\243\274\224\033[\275\346\027\014>\023\325\211=I3L=~\212\215\275\002\361\274\2758\323\026\276\216:\022>\022\217\371\274\336\315\034\276C\373\232=\031\246\226=\374i\t\276|\225\026;\037v\323\274\004\366\"\276\030b!>\271e\231=R\327\372<\237\372 \275li\002\276\336\220G=6\022\327\275d~r\276\351&!>&(\220\274L\n6\275\251`\222\275\305\211$>O\201\005\275\313/\347\273\032\231\033<\372\367\344<\034\242\366=\205\257\'\276\305b\270\275\030#\022\276\205\206\255=B\273J<\333@\003>y!\220\274\216\366f=\346\224\206=PW\302\275e\032\">\205)\267=a\277\220<\317\353\031<t\200P>/\246V\276\331\247\326=\233\243\373=\232\214\231<%\0227\276\306\353\n;\202\022\200=nQ@;\362d;\272\r/\216\275\212p\004\275\263\0200\276\242\226<\276\2675\246\275\373\025\n>\352\304\022\275\022\201\351=B_\332=\362\360\275\274\233\025$>\031\225\320<*4(=[\250\230\2757\273\324\275@k\026\273\216\307\021=\32105\275\316\237\344\274\232\323\323\274\251\000\005>\272\327o>F\305\003\2765\210\033\276\264\324^<\357_\014\276\356\204z<\000\321\262=Y\305\334\2752bN:\214\2578>\247\220\240\275hO\244\274?\020,\276c\334^<\222\325\022=_\367\204\275\r\350\002=8\352x=i\2016=\357,a\276y\021\314\275\005\226\325\275\310\022\227=\220\376\273\275\r\261G=\327\210\006>\021\202\314\275c\217\021\276^\251\332\275\357\300\250;\274N\305<.\002\346\275\317|\345\274\n%\311=\353\212]\276\301l\n>\241\364\005\276#\331\311\275z\257o\274`\351\334=\034\334\\=\373\241\216\275\374\324\344<.k\364;`\315\337\274\201\032-\276\006\343I\276\310\216\014=\363a\250\275\225VB\275/\005#\274U\311\262\275\317\024\304<\3132\017<\313=\017>SZ9=\360n\016\276\310\316\017>\264\202>>\2073\005;y\010\322=L\306\372;\3062\364\275s\273p=?\303\344=\360\265\025\276U\277\023\275\006\217>\275\331\265\234\275\226\233\001>\2623\007\275\225^F\276({\336\275\251YU\275\027&.\276\245z\006\275)\226}=\356Df<\020d\341\274\255\251\217=\200\266\001\276C\200\320\274\245\n4\276}\022\371\275/_\267=XK\254\275\n_3>\254D\264;\266yd\275\246\303\202\275\276\311\316\271\353\266\244=[\200\273=PH\277\275\016pk=\007\217k\275p~\013=\325a\302\275v\370z\2755\2579=}/\210\276\023\330U\276\217\352<=\226\203\036=\243 {\274\231\327\311\275\315\005F\276\350wL\276\334\027\231\275\236\224\360\275\261\367\241\276\272P\026\275\223v\223=s!.>\360\344\202\275\370\204\315\275\330nP\274B\210\010\276^\301*\276\272\021`\275\257\207>\276\261/\275\274\310\334\270=t\031\311;\315\256\313\274\261\r}\276\342b\224<\344\312B\276e\204\203<\022\371I\276\207xJ\276\374\341\023<Z]\221=4\014\000\275\342v\'\275!G<\276R\001R=\352\033\273\275!# \275\364\020\317<\210\022j\275\251~\023=\\3\242=N5\203=\342:\331=f\335\204\273G?Q>\374\034\007=\335>\375<\217r\026\276\262g->\347Vi=\347\266\005=\242a\026= :w\275\030u\323\273\034w\302\275k\217\322=\201a\032>\352\020\247\275\010\222\352\275i\372D\276cp\273\275}&\332=p\374\014=\031H\245\275\264y4<\362\317\271=\010\023\032=\023n\370=\002\2657><X+=\306\177\347\2757Q\021\276u7\251\276\206\026/=\224\223\032\276\231a\264:\350\237\343\275\266\221\234<\007\014\351=\014\3708>\320\024\336\274`\322\334\275_\325\327\275\260\202\243=\331D\303\275Y\203\007\275\352\335\357;\035\241\023\276c/h\275\206\354\376\275D\"\340\274p\362g\275\237\000\022=\034\264\211=\323Y\n\276\031\004*\276\243\322\246=\356e\003>\273\361\367=\352\265\375\272\272-~\275\217\\\267=d\310\027\276\344@\370\275x\351\037>\021\024-\275\365\231\235=Ld\355\2751=o=\016\315\030<\226\340\277\275]\t\316\273A\2664\275\207\202\231\275pg\260\275\3723\344\274\267\271\334\274\202\305\201\275$K\372<\263c\260\275\354A\030\2756P\025>i^\244=)\270\t\276\002\222)\274:\277\232\275\241\357\340\275\261\024\005\276\343\234\'=1\272t\275:\177\307\274\260B\000<v\307\004>7g\261=\2510F\276+!\260\274\t+O;\005\301\235\274|\223>\272\007r\255=\333\347\245\275\0376\223=^\005&=Y\311\010>Jb\002\276\227\237z;v\330\250<\004\013\225=\264\241\027>]\340:\276d\334\261\273\337\221\231\275V\002\026=\033a\364=\354\202\323<\210\010r\275D\202\202\275Ov\">d\245\343;\231\332@\276\346x\022\275 \223\024\276\232\305\201\274\036\233\377=1\010l\275\004,#>\316G\364<~8D\275C\252\336\274\277\263\334=\254\336O=\rpG>\201rX<\177n\245=^F\223\275\277\263F\276X\372E<\301\210\022\276\224\034\201=\342\024\210\275Y\332\371;\177\262\365\275\266\305\203=\\\221\037=O*\375=a\023\177\275\330v\204\274U-==\353:\233\275]\002\r\274\250\035\237\275\034M\345\275\215\261\365=\325J{\275[\360;\275\032\363<\274\036\"\343=\023I\373=\326\013\036\275\221\020.\276D\026\n\276\351\007\315;(:\212=\222J\246=Fk\375\275\251\343\001\276D\002\234=;uv<&\n\373=.\254\201\276\376\201\331\274\377\324O\275f\001\277\275\031\213\273=&b9=)\027\272\273\261w\213=\317\n\373<\036{\257\273X\3342\275\305\016\325=J\321\217\275\265\246\266\275\274DA=Vu\340;\037\\\020\275\337u^\275\310\222\321=\256\033\323=\214\360\261=W,\021\276N2\251=p\016.\276GJN>\201`\300\274\335\3071\274e%\376<\301|\327\273S\206>\276\025\2540;\372y\214<\270\363\006\275i\367\222\275\274k\014=\013\244B=\014\302\326=\314\031\331=\277\323 \275?n\207=\032 \223=\257I\350=E\257\020\276\223\277\037=~\252\343;\274\355\217<\355i\306=\t\244\222\272%9.>Kn\017\275\022,^<L\357\276\275\r^L>\331\365\377=\\\220!<\230\004C\274\224U\257;\014\337\327:\274\367\007=X\337.\276\257\027O>\226\205\\\275^~0\276\351>\250\2758\312\254\275\231\341P\2753*,=\335\215\272=c\344\360\274\210\245\037\274\203\2556>\006?\001>w\r0\276\017p\202=\261\331Z>\013\222\027\275\246^)>\001 8\276\222\323O>\334\333B>\223\233\374\275\004\004_\275\351\016T=\273\267\031=\025\217!\274\021\266\016>L\345k\275\246K\235<\223\317\242\273W\0178\274YA\305\273\350?\267=\316\366\207\275\013\355\300<\374\330\265\275\205\027\333=\217\3646=L7\327\2746o@\275\246\357\206=6\034M\275\370\354!>r\312\324<R\216\324=\331\tq>\210iN\275\032Iu\275c\241\276\275\312\006\005>\360\244t\276\206\324\206\275\360\375\225\274\233\321r<\377`\221\275b\033$>L\220z=\223\237\331\273\366\367:<+\r\360\275\251\231n\276\254\346(\276dZ\255\275R-\274<K\243)>\234/\352\275G\224\333\275\202:B>1\356)\275\344\376K\276\364\311K\275\016\332\222\275a|\344\275\247\007D;A)6=\2232#\276\373\3056\276\265\206\t\276\271\032\030\275\244\"+>C\000\204\274\242r9\275\324\021\024\276\275\372\247;\013\004\354;N\331\334=:\325\366=\241\310\337=\272\030\362\275\205\330\302=\255\250\246=X\n3=c\251?\276|sP\275X\343\304\275\274j\236\275\010\227\243>\242\267t\275\\\004\256\275\307\367\245\275\202\246\254\275x\316\221=\227#\327\275\221\234\026>]T\342<\306\006\347=\332XS=u\212\276=(\366\301=\017\365\257\2748\254\214=>/\n=\376\001-\274\001\365L\275_e?>\2370\037>\231}X>\242\325\315=\376>V=\232\255\004>\r\230H<\026\325\327\274\3753;\275\323\007\024=\323\361q\276\034\316\200\275Pp\223\273\354\331\325\275\274\230\274\273\210\334v>,\303\221\274o\013H=3\320\340=\264\352\237=y\020L= \205\357=\200\353n=\327`\247=\374.\026<I\306\302;OT\316=RdA=\261<\262=\260N\232\275k(\'<0\263@>b\253\260\275\334\361\277\274\326H\223=\267\227\031\276\334\003\242\275\255\313\207\274\237\244&>\tFM=\363\336\030=\371\2657\275\336)\021\275\244\021\374=Q;B=\257\361\210=\355\213\'>\252I[<\'o&\276zbl\275\350\327/\276\204\356#=\232\034\354\274\305\373\212\275G\246.=\237\234\277\274v\322\t>\t \031>\332\226\021\275I$j\276\266\000\252\275\211\230#\276\303\013\256\275\300\332\261\274\271z!\275cB(>\254\201 >\205\373\005=g\323\002\276tq\237=\204\3366\275\204t\215=\354\335\367=\334\016\262\275r\3663\276\224}@>\211\222\037=^,<=\\\355\026=\273\373\216=^\022\260\273\270\342\222=iY\265\275\273\013\211\275\032\366\377\275S`\016=u4q\275%`\027\276\251C\335=\337^\252=\003\233\266=\254b\022<X\210\347\275\257&\341\274\254\311\232=\303\375\244<_\336\361\274P\315#=\233\201\320=\023\213^\274\035T\311\275k\034+\275\023^\250\274\366\261\214;\016\362\020\275\t\353&<\242G\213\275\357pq\275\006\211#=,\235\257\274\036m`\275 